unsigned char model_float32_tflite[] = {
  0x1c, 0x00, 0x00, 0x00, 0x54, 0x46, 0x4c, 0x33, 0x14, 0x00, 0x20, 0x00,
  0x1c, 0x00, 0x18, 0x00, 0x14, 0x00, 0x10, 0x00, 0x0c, 0x00, 0x00, 0x00,
  0x08, 0x00, 0x04, 0x00, 0x14, 0x00, 0x00, 0x00, 0x1c, 0x00, 0x00, 0x00,
  0x88, 0x00, 0x00, 0x00, 0xb8, 0x00, 0x00, 0x00, 0xd0, 0x37, 0x00, 0x00,
  0xe0, 0x37, 0x00, 0x00, 0x98, 0x4a, 0x00, 0x00, 0x03, 0x00, 0x00, 0x00,
  0x01, 0x00, 0x00, 0x00, 0x04, 0x00, 0x00, 0x00, 0xe2, 0xc4, 0xff, 0xff,
  0x0c, 0x00, 0x00, 0x00, 0x1c, 0x00, 0x00, 0x00, 0x38, 0x00, 0x00, 0x00,
  0x0f, 0x00, 0x00, 0x00, 0x73, 0x65, 0x72, 0x76, 0x69, 0x6e, 0x67, 0x5f,
  0x64, 0x65, 0x66, 0x61, 0x75, 0x6c, 0x74, 0x00, 0x01, 0x00, 0x00, 0x00,
  0x04, 0x00, 0x00, 0x00, 0xbc, 0xff, 0xff, 0xff, 0x22, 0x00, 0x00, 0x00,
  0x04, 0x00, 0x00, 0x00, 0x06, 0x00, 0x00, 0x00, 0x79, 0x5f, 0x70, 0x72,
  0x65, 0x64, 0x00, 0x00, 0x01, 0x00, 0x00, 0x00, 0x04, 0x00, 0x00, 0x00,
  0xe6, 0xc4, 0xff, 0xff, 0x04, 0x00, 0x00, 0x00, 0x0f, 0x00, 0x00, 0x00,
  0x72, 0x65, 0x73, 0x68, 0x61, 0x70, 0x65, 0x5f, 0x36, 0x5f, 0x69, 0x6e,
  0x70, 0x75, 0x74, 0x00, 0x01, 0x00, 0x00, 0x00, 0x0c, 0x00, 0x00, 0x00,
  0x08, 0x00, 0x0c, 0x00, 0x08, 0x00, 0x04, 0x00, 0x08, 0x00, 0x00, 0x00,
  0x24, 0x00, 0x00, 0x00, 0x04, 0x00, 0x00, 0x00, 0x13, 0x00, 0x00, 0x00,
  0x6d, 0x69, 0x6e, 0x5f, 0x72, 0x75, 0x6e, 0x74, 0x69, 0x6d, 0x65, 0x5f,
  0x76, 0x65, 0x72, 0x73, 0x69, 0x6f, 0x6e, 0x00, 0x25, 0x00, 0x00, 0x00,
  0x14, 0x37, 0x00, 0x00, 0x0c, 0x37, 0x00, 0x00, 0xe8, 0x36, 0x00, 0x00,
  0x98, 0x36, 0x00, 0x00, 0x68, 0x36, 0x00, 0x00, 0x54, 0x36, 0x00, 0x00,
  0x40, 0x36, 0x00, 0x00, 0x2c, 0x36, 0x00, 0x00, 0x18, 0x36, 0x00, 0x00,
  0x04, 0x36, 0x00, 0x00, 0xec, 0x35, 0x00, 0x00, 0xd8, 0x35, 0x00, 0x00,
  0x88, 0x16, 0x00, 0x00, 0x18, 0x07, 0x00, 0x00, 0x08, 0x01, 0x00, 0x00,
  0xec, 0x00, 0x00, 0x00, 0xd0, 0x00, 0x00, 0x00, 0xb4, 0x00, 0x00, 0x00,
  0xac, 0x00, 0x00, 0x00, 0xa4, 0x00, 0x00, 0x00, 0x9c, 0x00, 0x00, 0x00,
  0x94, 0x00, 0x00, 0x00, 0x8c, 0x00, 0x00, 0x00, 0x84, 0x00, 0x00, 0x00,
  0x7c, 0x00, 0x00, 0x00, 0x74, 0x00, 0x00, 0x00, 0x6c, 0x00, 0x00, 0x00,
  0x64, 0x00, 0x00, 0x00, 0x5c, 0x00, 0x00, 0x00, 0x54, 0x00, 0x00, 0x00,
  0x4c, 0x00, 0x00, 0x00, 0x44, 0x00, 0x00, 0x00, 0x3c, 0x00, 0x00, 0x00,
  0x34, 0x00, 0x00, 0x00, 0x2c, 0x00, 0x00, 0x00, 0x24, 0x00, 0x00, 0x00,
  0x04, 0x00, 0x00, 0x00, 0xce, 0xc5, 0xff, 0xff, 0x04, 0x00, 0x00, 0x00,
  0x10, 0x00, 0x00, 0x00, 0x31, 0x2e, 0x31, 0x31, 0x2e, 0x30, 0x00, 0x00,
  0x00, 0x00, 0x00, 0x00, 0x00, 0x00, 0x00, 0x00, 0x04, 0xb7, 0xff, 0xff,
  0x08, 0xb7, 0xff, 0xff, 0x0c, 0xb7, 0xff, 0xff, 0x10, 0xb7, 0xff, 0xff,
  0x14, 0xb7, 0xff, 0xff, 0x18, 0xb7, 0xff, 0xff, 0x1c, 0xb7, 0xff, 0xff,
  0x20, 0xb7, 0xff, 0xff, 0x24, 0xb7, 0xff, 0xff, 0x28, 0xb7, 0xff, 0xff,
  0x2c, 0xb7, 0xff, 0xff, 0x30, 0xb7, 0xff, 0xff, 0x34, 0xb7, 0xff, 0xff,
  0x38, 0xb7, 0xff, 0xff, 0x3c, 0xb7, 0xff, 0xff, 0x40, 0xb7, 0xff, 0xff,
  0x44, 0xb7, 0xff, 0xff, 0x48, 0xb7, 0xff, 0xff, 0x32, 0xc6, 0xff, 0xff,
  0x04, 0x00, 0x00, 0x00, 0x0c, 0x00, 0x00, 0x00, 0xff, 0xff, 0xff, 0xff,
  0x31, 0x00, 0x00, 0x00, 0x10, 0x00, 0x00, 0x00, 0x4a, 0xc6, 0xff, 0xff,
  0x04, 0x00, 0x00, 0x00, 0x0c, 0x00, 0x00, 0x00, 0xff, 0xff, 0xff, 0xff,
  0x31, 0x00, 0x00, 0x00, 0x08, 0x00, 0x00, 0x00, 0x62, 0xc6, 0xff, 0xff,
  0x04, 0x00, 0x00, 0x00, 0x0c, 0x00, 0x00, 0x00, 0xff, 0xff, 0xff, 0xff,
  0x62, 0x00, 0x00, 0x00, 0x08, 0x00, 0x00, 0x00, 0x7a, 0xc6, 0xff, 0xff,
  0x04, 0x00, 0x00, 0x00, 0x00, 0x06, 0x00, 0x00, 0xeb, 0xff, 0x41, 0x3e,
  0x5b, 0x7c, 0x86, 0xbe, 0x87, 0xfc, 0x8d, 0xbe, 0x42, 0x81, 0x0c, 0xbe,
  0x89, 0xc2, 0x7c, 0xbe, 0x51, 0x89, 0x88, 0x3e, 0x62, 0x6b, 0xc8, 0xbd,
  0xeb, 0xdb, 0x39, 0x3f, 0x62, 0x7e, 0x55, 0xbe, 0xdc, 0x04, 0x8d, 0x3a,
  0x5f, 0xce, 0x87, 0xbd, 0x76, 0x84, 0x67, 0xbe, 0x5b, 0x26, 0x52, 0x3e,
  0xaa, 0x58, 0x25, 0xbd, 0x17, 0x9e, 0x82, 0x3d, 0x06, 0x65, 0x3c, 0x3f,
  0xd1, 0x80, 0xb5, 0x3d, 0x19, 0x36, 0x95, 0xbe, 0x60, 0x19, 0x62, 0x3d,
  0x02, 0x87, 0x8d, 0xbe, 0x9f, 0x2c, 0x04, 0x3e, 0xa0, 0xa7, 0x08, 0xbe,
  0xde, 0x92, 0xef, 0xbd, 0xa8, 0x33, 0x15, 0x3f, 0xdd, 0xd2, 0xf4, 0x3d,
  0xfc, 0x18, 0xa5, 0xbe, 0x9f, 0x44, 0x18, 0x3e, 0x6a, 0xf1, 0x17, 0x3d,
  0x30, 0x3e, 0x2e, 0xbc, 0x21, 0x15, 0x87, 0x3e, 0x2f, 0xe8, 0xff, 0x3e,
  0x05, 0x54, 0x16, 0xbf, 0x62, 0x38, 0x93, 0x3e, 0x49, 0xa6, 0x05, 0x3f,
  0xcd, 0x7a, 0x78, 0x3e, 0x02, 0x14, 0x53, 0x3e, 0x27, 0x7c, 0x17, 0xbe,
  0x92, 0x62, 0x4a, 0xbe, 0x60, 0xac, 0x23, 0x3d, 0x4c, 0x28, 0x04, 0xbf,
  0xa7, 0xf1, 0x82, 0x3e, 0x47, 0xd3, 0xbe, 0xbc, 0x01, 0x1d, 0x54, 0xbe,
  0x3e, 0xbc, 0xa9, 0x3d, 0xd7, 0x09, 0x6a, 0xbe, 0x11, 0x60, 0x31, 0xbe,
  0x52, 0x9c, 0x84, 0xbe, 0xd0, 0x47, 0xd1, 0xbe, 0xe5, 0x33, 0x9b, 0xbd,
  0x9a, 0xba, 0x95, 0xbd, 0x35, 0xab, 0x9a, 0x3d, 0xbd, 0x93, 0xa4, 0xbd,
  0xb1, 0x8c, 0xd9, 0x3d, 0x62, 0x38, 0x0e, 0x3e, 0x95, 0xbc, 0xc3, 0xbd,
  0x76, 0x58, 0xda, 0xbd, 0x82, 0xda, 0xb3, 0x3e, 0x48, 0x8d, 0x0b, 0xbf,
  0x11, 0xaf, 0x1f, 0xbf, 0x84, 0x8f, 0xad, 0xbc, 0x84, 0x07, 0x20, 0x3e,
  0xa2, 0x15, 0xfc, 0xbd, 0x3e, 0xfd, 0x2a, 0xbf, 0x66, 0x76, 0x97, 0x3e,
  0x36, 0xf8, 0x53, 0xbe, 0x4b, 0x4b, 0x05, 0xbf, 0x81, 0xd6, 0x1e, 0xbf,
  0x5b, 0xb1, 0x37, 0xbe, 0xdf, 0x4e, 0xfb, 0x3d, 0xc1, 0x8c, 0x65, 0x3e,
  0x88, 0xcf, 0x25, 0xbf, 0xf9, 0x0e, 0xaa, 0x3e, 0x49, 0x22, 0xf4, 0x3d,
  0x7f, 0x6f, 0x2c, 0x3d, 0xa3, 0xde, 0x51, 0x3e, 0xed, 0x43, 0xbc, 0x3e,
  0x8e, 0x66, 0x80, 0xbd, 0xc7, 0x9d, 0x81, 0x3e, 0xb8, 0x37, 0xa5, 0x3e,
  0xf1, 0x2f, 0x00, 0x3d, 0x40, 0xa3, 0x8d, 0xbe, 0x88, 0x61, 0xa6, 0x3e,
  0x33, 0xa9, 0xa1, 0x3e, 0xac, 0x6f, 0x95, 0x3e, 0xaa, 0x50, 0x61, 0xbc,
  0xba, 0xae, 0xa0, 0xbe, 0xa0, 0x08, 0x01, 0x3d, 0x91, 0x7a, 0x09, 0x3e,
  0xa5, 0x2e, 0xd1, 0xbe, 0x3a, 0x28, 0x79, 0xbe, 0x32, 0x41, 0x04, 0x3f,
  0x7f, 0x9d, 0x35, 0x3d, 0xd1, 0x61, 0x32, 0x3d, 0xaf, 0x6b, 0xc9, 0xbe,
  0xb0, 0x08, 0x4c, 0x3e, 0x21, 0xe4, 0x5d, 0xbd, 0xbe, 0x93, 0x3f, 0x3e,
  0x62, 0x0d, 0x71, 0xbe, 0x57, 0x30, 0xe4, 0xbc, 0xf2, 0x4f, 0x26, 0x3e,
  0x05, 0x4e, 0x18, 0xbe, 0x4a, 0x51, 0x79, 0x3e, 0xbe, 0x7c, 0x01, 0x3f,
  0x23, 0xc4, 0x82, 0xbe, 0x3c, 0xac, 0x19, 0x3e, 0x7d, 0x68, 0xa1, 0x3e,
  0x43, 0x3c, 0xf9, 0x3e, 0x5b, 0x26, 0x0c, 0xbe, 0x37, 0xf5, 0xcc, 0xbd,
  0xb1, 0x41, 0x30, 0xbe, 0xa6, 0xc4, 0x08, 0x3f, 0xe5, 0x90, 0x2f, 0x3d,
  0xb3, 0x96, 0x95, 0x3c, 0x66, 0x0e, 0xac, 0x3e, 0x0a, 0x56, 0xc0, 0x3e,
  0x0c, 0xba, 0x81, 0xbe, 0x57, 0x87, 0x82, 0xbe, 0x54, 0x6d, 0x41, 0x3d,
  0x99, 0xf6, 0x52, 0x3f, 0xe3, 0x53, 0x32, 0x3d, 0x33, 0x21, 0x77, 0x3e,
  0xa3, 0xfc, 0xe1, 0xbe, 0xbb, 0x2d, 0x16, 0xbf, 0x6c, 0x5d, 0x11, 0xbe,
  0x80, 0x72, 0xee, 0xbd, 0xd0, 0x5d, 0x8a, 0x3e, 0x98, 0x4f, 0x01, 0xbf,
  0x93, 0xe1, 0xad, 0x3e, 0x02, 0xf7, 0x89, 0x3d, 0xa5, 0x72, 0xa5, 0xbd,
  0x44, 0xb4, 0x1a, 0xbe, 0x18, 0x18, 0x0c, 0xbe, 0x79, 0x32, 0x42, 0xbe,
  0x15, 0x54, 0x97, 0xbd, 0xba, 0x0a, 0xc3, 0xbe, 0x8e, 0x6c, 0xa8, 0x3d,
  0x93, 0xdf, 0x52, 0x3e, 0x2b, 0xe5, 0xe1, 0xbd, 0x56, 0x8f, 0x81, 0xbd,
  0xda, 0x60, 0xb3, 0x3d, 0xf5, 0x7b, 0x97, 0xbe, 0xe0, 0x53, 0xa0, 0x3e,
  0x8b, 0x1c, 0xd9, 0xbc, 0x32, 0x2c, 0x65, 0xbd, 0xae, 0xb5, 0x03, 0xbf,
  0x8f, 0x6a, 0xab, 0xbe, 0x5e, 0x98, 0xad, 0x3d, 0x02, 0xe8, 0xd8, 0xbd,
  0xab, 0xfe, 0xa7, 0x3d, 0xea, 0x0c, 0x0d, 0xbf, 0x5b, 0x28, 0x7f, 0xbe,
  0x09, 0xef, 0x84, 0x3e, 0x02, 0xbe, 0x1f, 0xbd, 0x4c, 0xbf, 0xce, 0xbe,
  0x74, 0x09, 0xc5, 0x3d, 0x6f, 0x64, 0x67, 0x3e, 0xf6, 0x57, 0x85, 0x3e,
  0x3d, 0x38, 0x43, 0xbe, 0x2d, 0x85, 0xce, 0xbe, 0x71, 0x07, 0x1e, 0xbc,
  0x72, 0xb0, 0x51, 0x3d, 0x36, 0x78, 0xd0, 0x3e, 0x9f, 0xd7, 0xba, 0x3e,
  0xc2, 0x42, 0xfd, 0x3e, 0x73, 0xda, 0x8d, 0xbd, 0xcf, 0x14, 0xfb, 0x3c,
  0xf7, 0x69, 0x3d, 0x3e, 0xae, 0x84, 0xbb, 0x3c, 0x4e, 0x5e, 0xf9, 0xbd,
  0x79, 0x55, 0xb3, 0xbe, 0x79, 0x8e, 0x81, 0xbe, 0x2f, 0x99, 0xb9, 0xbd,
  0xb0, 0x1c, 0x97, 0xbd, 0x21, 0x61, 0x50, 0xbe, 0x25, 0x04, 0x4c, 0xbe,
  0xd0, 0xa4, 0x23, 0x3d, 0x89, 0xd4, 0x40, 0xbc, 0xdc, 0xff, 0x9e, 0xbe,
  0x66, 0xe1, 0x06, 0xbe, 0xa4, 0x8a, 0x50, 0xbe, 0x70, 0x22, 0xbe, 0x3d,
  0xb3, 0x6b, 0x77, 0x3e, 0xba, 0x5a, 0x6b, 0xbe, 0xa9, 0x92, 0x6b, 0x3e,
  0xe9, 0x9e, 0xc4, 0xbd, 0xfa, 0x66, 0x85, 0x3e, 0x22, 0xc4, 0xe1, 0x3e,
  0xbf, 0x7f, 0x69, 0xbe, 0xf3, 0x2e, 0xf6, 0xbd, 0x0a, 0x49, 0x98, 0x3d,
  0x40, 0x66, 0xda, 0x3e, 0x85, 0x59, 0x1d, 0x3f, 0xdf, 0xa1, 0x7c, 0x3e,
  0xc4, 0x20, 0xd2, 0x3e, 0x80, 0x52, 0x13, 0xbd, 0x50, 0x1a, 0x5b, 0x3e,
  0xc6, 0x64, 0x9f, 0x3d, 0x11, 0xc3, 0x9c, 0x3e, 0xf0, 0xf1, 0xb3, 0xbd,
  0x82, 0x4f, 0x12, 0xbf, 0xbb, 0xd1, 0x0f, 0x3e, 0x38, 0x72, 0xc6, 0xbd,
  0x1a, 0x7b, 0x7d, 0xbe, 0x72, 0x8a, 0xff, 0x3e, 0xec, 0x2b, 0x81, 0xbe,
  0xc8, 0xcf, 0x9f, 0x3d, 0xd2, 0x9e, 0x0c, 0xbe, 0x73, 0x9b, 0x5f, 0xbf,
  0xe4, 0x08, 0x28, 0x3c, 0x5c, 0xae, 0x10, 0xbe, 0xba, 0x06, 0xee, 0xbe,
  0xef, 0x40, 0xcb, 0xbc, 0x4c, 0x4e, 0xab, 0x3d, 0x2a, 0x8b, 0x92, 0xbd,
  0x33, 0x6a, 0xcc, 0xbd, 0xee, 0x3a, 0x6a, 0xbf, 0x0c, 0x5c, 0x0f, 0x3e,
  0x79, 0xff, 0xdf, 0xbe, 0xdf, 0x5b, 0xfa, 0x3e, 0xaa, 0x65, 0xe4, 0x3e,
  0xad, 0x57, 0x81, 0x3e, 0x89, 0x08, 0xec, 0xbd, 0x4a, 0xf1, 0x1d, 0x3e,
  0x06, 0x56, 0xda, 0xbe, 0x3d, 0x82, 0x20, 0x3e, 0x13, 0x8d, 0xf9, 0x3e,
  0xda, 0xd8, 0xe4, 0x3e, 0x04, 0x79, 0xc1, 0x3e, 0x74, 0x3a, 0xa8, 0x3c,
  0xd9, 0xd7, 0xab, 0x3d, 0xfa, 0x33, 0x8f, 0x3d, 0x95, 0x94, 0x85, 0xbe,
  0x0e, 0x63, 0x58, 0xbe, 0xc3, 0x52, 0x2e, 0x3e, 0xc0, 0xc1, 0x35, 0x3e,
  0xb6, 0x70, 0xf6, 0x3c, 0xc3, 0x7a, 0x73, 0x3e, 0x18, 0x13, 0xff, 0xba,
  0x6d, 0xe4, 0x09, 0x3e, 0xfa, 0x31, 0xae, 0xbe, 0xe0, 0xf3, 0xc0, 0x3d,
  0x9f, 0xb7, 0xb1, 0xbe, 0x18, 0x79, 0x53, 0xbe, 0x42, 0xfd, 0x11, 0xbe,
  0x20, 0x29, 0x34, 0x3e, 0xb6, 0xf6, 0xef, 0x3d, 0x26, 0x03, 0xf2, 0xbd,
  0x99, 0x1c, 0x6c, 0xbe, 0x97, 0x02, 0x9f, 0x3e, 0x6c, 0x4d, 0xc9, 0x3e,
  0x67, 0x2c, 0x8d, 0x3e, 0x36, 0xa9, 0x83, 0xbe, 0xd1, 0xfc, 0x62, 0xbe,
  0x80, 0x9f, 0x09, 0x3e, 0x5c, 0xea, 0x11, 0x3f, 0xb4, 0xb2, 0x8b, 0x3d,
  0xc8, 0x49, 0x3d, 0xb9, 0x99, 0xb4, 0xd0, 0x3e, 0xaf, 0xd3, 0x49, 0x3e,
  0x14, 0xdb, 0xdf, 0xbe, 0xab, 0x7e, 0x6c, 0xbe, 0x01, 0xe5, 0x80, 0xbe,
  0x21, 0x05, 0xcf, 0xbd, 0x53, 0xd1, 0xc8, 0x3e, 0x4d, 0x35, 0x3c, 0xbe,
  0x27, 0x06, 0x51, 0xbe, 0x77, 0x07, 0x15, 0xbf, 0xff, 0x91, 0x06, 0x3f,
  0xe9, 0x7d, 0x91, 0xbe, 0x39, 0x8c, 0x1f, 0x3e, 0xe7, 0x6e, 0x1b, 0xbd,
  0x50, 0xb1, 0xee, 0xbe, 0xd1, 0xe8, 0xfe, 0x3d, 0xaa, 0xe8, 0x4c, 0xbe,
  0xc3, 0x37, 0xab, 0xbd, 0x53, 0x69, 0x04, 0x3f, 0xaf, 0x3d, 0x76, 0x3e,
  0x2a, 0x05, 0x04, 0x3e, 0x66, 0x5c, 0x18, 0xbe, 0x80, 0x97, 0xe1, 0xbe,
  0xa7, 0x45, 0x89, 0xbc, 0x28, 0xbb, 0xaa, 0x3c, 0xa7, 0x9e, 0x1b, 0xbf,
  0x4f, 0x60, 0x41, 0x3e, 0x6d, 0x16, 0x8a, 0xbe, 0xab, 0xbb, 0x3d, 0xbe,
  0x53, 0x62, 0x16, 0xbd, 0xfb, 0xd0, 0x58, 0xbe, 0x41, 0xd6, 0xf4, 0xbd,
  0x76, 0xf4, 0xc3, 0xbe, 0xc5, 0xe0, 0x06, 0xbe, 0x25, 0x51, 0xcf, 0xbe,
  0x65, 0xea, 0x15, 0x3e, 0x0a, 0xee, 0x4e, 0x3e, 0xd5, 0x9b, 0xa3, 0xbe,
  0x2a, 0xeb, 0xaf, 0x3e, 0x19, 0x8c, 0x58, 0x3c, 0xb9, 0xfc, 0x90, 0xbe,
  0xa9, 0xd2, 0xa6, 0xbe, 0x2a, 0x35, 0xa2, 0xbe, 0xd0, 0x0b, 0x3e, 0x3e,
  0xf2, 0xe5, 0x2c, 0xbe, 0xcf, 0x68, 0x49, 0xbd, 0x67, 0xcd, 0x25, 0x3f,
  0x06, 0x93, 0x06, 0x3e, 0x4b, 0xa3, 0xe8, 0x3c, 0x6d, 0x66, 0x0b, 0xbf,
  0x1c, 0xad, 0x86, 0xbe, 0xda, 0xbd, 0x37, 0xbd, 0xca, 0x8d, 0x02, 0x3e,
  0x8c, 0xd3, 0xed, 0xbe, 0xee, 0x27, 0x13, 0x3f, 0x9a, 0x97, 0x97, 0xbe,
  0xc3, 0xc1, 0x9c, 0x3c, 0xdc, 0x31, 0x02, 0x3f, 0xfc, 0x88, 0x81, 0xbd,
  0x17, 0x0f, 0x29, 0x3d, 0x7b, 0x33, 0x44, 0xbe, 0x14, 0xa0, 0x39, 0x3e,
  0x72, 0x77, 0x6e, 0x3e, 0x63, 0x38, 0xbe, 0x3e, 0xf7, 0xa6, 0x04, 0x3e,
  0x67, 0x2f, 0x8e, 0xbe, 0x19, 0x08, 0xaa, 0x3d, 0x91, 0x99, 0xaa, 0x3e,
  0x3d, 0x48, 0x9d, 0x3e, 0x20, 0xa6, 0x41, 0xbd, 0x6e, 0xf4, 0xcd, 0xbe,
  0x04, 0x77, 0xd5, 0x3d, 0x1a, 0xd1, 0x29, 0x3e, 0xc8, 0x49, 0xaf, 0xbe,
  0x84, 0x05, 0xbf, 0x3d, 0x24, 0xa3, 0x8b, 0xbd, 0xe8, 0xc6, 0x89, 0x3e,
  0x92, 0x0a, 0xe3, 0xbd, 0x56, 0x02, 0xa9, 0xbe, 0x37, 0xae, 0xd9, 0xbd,
  0x29, 0x7b, 0x09, 0xbe, 0xfb, 0x9b, 0xc7, 0xbe, 0x13, 0x21, 0x00, 0x3f,
  0xec, 0xe1, 0x05, 0x3e, 0xd2, 0xd7, 0x60, 0xbd, 0xc9, 0xdd, 0x79, 0xbe,
  0x6e, 0x69, 0x2f, 0xbd, 0xc3, 0x3a, 0xe9, 0xbc, 0xf0, 0xfe, 0xad, 0xbe,
  0x96, 0xc4, 0x22, 0xbf, 0x0f, 0x7f, 0x2a, 0x3e, 0xc9, 0x4c, 0x05, 0x3e,
  0x15, 0xa4, 0x61, 0xbd, 0x95, 0x55, 0x71, 0xbe, 0x65, 0xa4, 0xef, 0x3e,
  0xca, 0x02, 0xe2, 0xbd, 0xa1, 0xfe, 0xe8, 0xbd, 0x38, 0x0b, 0x0f, 0xbf,
  0x27, 0x04, 0xad, 0xbd, 0x0c, 0x7d, 0x8d, 0x3e, 0xdb, 0xc5, 0xc8, 0x3c,
  0x05, 0x15, 0x02, 0xbf, 0x88, 0xd7, 0x35, 0x3f, 0xe5, 0x16, 0x0b, 0xbf,
  0x38, 0xeb, 0xd0, 0xbd, 0x5a, 0x1d, 0x3f, 0x3f, 0xf7, 0x42, 0x59, 0x3d,
  0xd6, 0x9d, 0x3d, 0xbe, 0x68, 0x85, 0xb7, 0xbe, 0xa7, 0x26, 0xe3, 0x3d,
  0x62, 0x3b, 0x38, 0x3e, 0x99, 0x00, 0xfd, 0xbe, 0x1f, 0x52, 0x4d, 0xbe,
  0xeb, 0x65, 0xec, 0x3e, 0x77, 0x16, 0xa0, 0xbd, 0x4d, 0x29, 0xcd, 0x3b,
  0xfc, 0xaa, 0xff, 0xbe, 0x0e, 0xae, 0x92, 0x3e, 0x90, 0x47, 0x63, 0x3e,
  0x88, 0x29, 0x1c, 0xbf, 0x0b, 0xf7, 0x67, 0xbd, 0xe4, 0x21, 0x07, 0x3f,
  0x1b, 0xe8, 0xd3, 0x3d, 0xcd, 0xb3, 0x10, 0x3e, 0x6d, 0x06, 0x12, 0xbf,
  0x84, 0xd6, 0xa2, 0x3d, 0x74, 0x6d, 0x18, 0x3d, 0x86, 0xcc, 0xff, 0xff,
  0x04, 0x00, 0x00, 0x00, 0x60, 0x0f, 0x00, 0x00, 0x6c, 0xfb, 0x6f, 0x3b,
  0x4f, 0x33, 0x34, 0x3d, 0x4e, 0x86, 0x7a, 0xbe, 0xf8, 0xc6, 0x78, 0x3e,
  0x02, 0x6f, 0x0b, 0x3e, 0x1d, 0x80, 0x8a, 0x3e, 0x3a, 0x3c, 0x13, 0x3e,
  0x02, 0x1a, 0x71, 0x3e, 0x82, 0xad, 0x69, 0x3e, 0x06, 0x3b, 0xc1, 0xbc,
  0xd5, 0xf6, 0xc0, 0x3c, 0x29, 0x3b, 0x30, 0x3e, 0x34, 0xa9, 0xa6, 0xbd,
  0xb2, 0xe6, 0xe5, 0x3d, 0x29, 0x86, 0x94, 0x3e, 0x6a, 0x33, 0x5f, 0x3e,
  0x89, 0xb6, 0xa7, 0xbd, 0x89, 0xa8, 0xdd, 0xbc, 0xc3, 0x40, 0x55, 0xbd,
  0x5e, 0xea, 0x2e, 0x3e, 0x82, 0xd1, 0xc9, 0x3c, 0x22, 0x89, 0x9f, 0x3e,
  0x64, 0x36, 0x72, 0x3e, 0x0f, 0x82, 0x8f, 0xbd, 0xd7, 0xaf, 0xf7, 0x3c,
  0xdb, 0xf9, 0xa0, 0x3d, 0x6b, 0xcd, 0x83, 0xbc, 0xd0, 0x89, 0xfe, 0xbd,
  0xa1, 0xcd, 0xc6, 0x3d, 0xe1, 0x94, 0x96, 0x3e, 0x2a, 0x97, 0xee, 0x3d,
  0xda, 0xdf, 0x96, 0x3e, 0x45, 0x46, 0x98, 0xbd, 0x4f, 0x9b, 0xa3, 0x3d,
  0xa3, 0x4e, 0x09, 0x3e, 0xc5, 0x16, 0x02, 0x3e, 0x6a, 0x85, 0x0d, 0x3c,
  0xa7, 0x9e, 0x02, 0xbd, 0x25, 0x6e, 0x8c, 0x3e, 0xa3, 0x37, 0x3a, 0x3e,
  0xd6, 0xbc, 0x8c, 0x3e, 0x8d, 0x38, 0x7e, 0x3d, 0x76, 0x59, 0x01, 0xbe,
  0x9b, 0x2e, 0x22, 0xbe, 0xac, 0xf4, 0x5b, 0x3d, 0x2e, 0xc8, 0x73, 0x3e,
  0x05, 0x13, 0x04, 0x3d, 0x9c, 0xb4, 0x30, 0xbe, 0x13, 0x55, 0x61, 0x3d,
  0x6c, 0x54, 0x22, 0x3e, 0xaf, 0xec, 0x88, 0xbd, 0xe3, 0x49, 0xbe, 0x3c,
  0x49, 0x0d, 0xe0, 0xbd, 0xe6, 0x3c, 0x27, 0xbe, 0x15, 0xe2, 0x54, 0x3e,
  0x8c, 0x50, 0x15, 0x3e, 0xec, 0x87, 0x0a, 0xbd, 0x6c, 0x45, 0x50, 0xbe,
  0xd1, 0xec, 0xd6, 0x3d, 0xb2, 0xcd, 0x18, 0x3e, 0x38, 0x73, 0x84, 0x3c,
  0x17, 0x7e, 0x18, 0x3e, 0x89, 0xde, 0xbd, 0x3d, 0x8b, 0x4b, 0xfa, 0x3d,
  0x4d, 0x81, 0xc3, 0xbc, 0xd1, 0xf4, 0xd7, 0xbd, 0xa3, 0xc8, 0x80, 0x3d,
  0x7b, 0x2e, 0x26, 0xbe, 0xff, 0x58, 0x65, 0xbe, 0xb9, 0xd2, 0xdd, 0xbd,
  0xe8, 0x17, 0xe4, 0xbc, 0x70, 0x8c, 0x77, 0x3e, 0x79, 0xa1, 0xff, 0x3d,
  0x54, 0x47, 0xd4, 0x3d, 0xdd, 0x6b, 0x1d, 0x3e, 0x9a, 0x32, 0xc2, 0x3d,
  0x3c, 0xa9, 0x1d, 0x3e, 0xe6, 0x63, 0x0b, 0x3e, 0x1a, 0x30, 0xf8, 0xbd,
  0x11, 0x82, 0x43, 0x3d, 0xa7, 0xff, 0xe6, 0xbd, 0x78, 0x16, 0x92, 0xbc,
  0x44, 0x23, 0x4e, 0x3d, 0x12, 0x2b, 0x25, 0x3d, 0x79, 0xf3, 0x96, 0x3d,
  0xb4, 0x28, 0xd7, 0xbd, 0xac, 0xbc, 0xc5, 0xbd, 0xc1, 0x75, 0x08, 0x3e,
  0x4a, 0x12, 0x11, 0x3e, 0x05, 0x0d, 0x3c, 0x3d, 0xec, 0x63, 0xa4, 0x3d,
  0x44, 0x6c, 0xee, 0xbd, 0x31, 0x58, 0xa4, 0xbd, 0x31, 0xa5, 0x7e, 0xbe,
  0x7b, 0x71, 0xa9, 0x3d, 0xcf, 0x7b, 0x4f, 0x3d, 0x0b, 0x39, 0xf1, 0x3c,
  0x9e, 0xe9, 0x0d, 0xbe, 0x6f, 0xb4, 0x5b, 0xbe, 0xb4, 0xea, 0xda, 0xbd,
  0xc0, 0x05, 0xfa, 0x3d, 0x08, 0x87, 0x9f, 0x3c, 0x33, 0xb0, 0x2d, 0xbd,
  0x68, 0x65, 0x03, 0x3e, 0x55, 0x2d, 0xe4, 0xbc, 0x28, 0x48, 0x77, 0x3d,
  0x9f, 0x8d, 0x86, 0x3d, 0x18, 0xd9, 0x59, 0xbe, 0x64, 0xee, 0xee, 0xbd,
  0x1a, 0x64, 0xbc, 0x3d, 0xd1, 0xea, 0x3c, 0x3e, 0x32, 0x2d, 0x06, 0xbe,
  0x70, 0xe9, 0x76, 0x3e, 0xa2, 0x3d, 0xa4, 0x3c, 0xaa, 0xd2, 0x27, 0xbe,
  0x27, 0xfd, 0xd5, 0x3d, 0x74, 0x14, 0x3d, 0xbe, 0x6f, 0xd2, 0xfd, 0x3c,
  0x85, 0xda, 0xe5, 0xbd, 0xf7, 0xd9, 0x6a, 0x3d, 0x1f, 0x7e, 0x00, 0x3d,
  0x81, 0xc2, 0x32, 0xbe, 0x85, 0xdf, 0xda, 0xbd, 0x18, 0x74, 0x4f, 0x3e,
  0xbb, 0x24, 0x89, 0x3e, 0x1f, 0x10, 0xff, 0x3c, 0x8c, 0xf5, 0x55, 0x3e,
  0x77, 0x3d, 0xcb, 0xba, 0x3c, 0xfb, 0xe2, 0x3d, 0x71, 0x9f, 0xf8, 0x3c,
  0x64, 0x1d, 0x49, 0xbd, 0x0b, 0xde, 0x9a, 0x3e, 0xeb, 0x7f, 0x22, 0xbd,
  0xf6, 0xb2, 0x48, 0x3e, 0x45, 0x05, 0xe6, 0x3d, 0xd4, 0x84, 0x9c, 0x3d,
  0xfd, 0xd1, 0x7e, 0x3e, 0x5d, 0x7e, 0x5e, 0x3e, 0x00, 0x4d, 0xc7, 0x3c,
  0xb8, 0xb1, 0x24, 0x3e, 0x6d, 0xe6, 0xfc, 0x3d, 0xa3, 0x33, 0xec, 0x3d,
  0x23, 0x2d, 0x2f, 0x3e, 0x5c, 0x23, 0x85, 0x3c, 0x01, 0x96, 0x23, 0x3e,
  0xf6, 0x54, 0x66, 0x3d, 0x5b, 0x28, 0x7b, 0x3e, 0xd4, 0x1e, 0x37, 0x3e,
  0xcf, 0x64, 0x45, 0x3e, 0xce, 0xad, 0xae, 0xbd, 0x39, 0x01, 0x7c, 0x3e,
  0xdb, 0x78, 0x82, 0x3e, 0xe1, 0xcc, 0xa4, 0x3e, 0x0c, 0x9e, 0xb2, 0x3d,
  0xbe, 0x6e, 0x74, 0x3e, 0x60, 0x98, 0x17, 0x3c, 0x22, 0x40, 0xef, 0x3d,
  0x2f, 0x08, 0xa7, 0x3e, 0xa4, 0x1e, 0x8e, 0x3c, 0xa8, 0xca, 0x32, 0x3e,
  0x65, 0x83, 0x64, 0x3e, 0x53, 0xf2, 0xb4, 0x3e, 0xde, 0x13, 0xa3, 0x3e,
  0xf0, 0xdc, 0x87, 0xbb, 0xdb, 0x64, 0x2b, 0x3d, 0xb6, 0x05, 0x61, 0xbc,
  0x0d, 0xf6, 0xd5, 0x3c, 0xf0, 0x1e, 0x06, 0x3e, 0x58, 0x13, 0xaa, 0xbd,
  0xbe, 0xa2, 0xf4, 0xbb, 0xf5, 0x5b, 0xa9, 0x3c, 0x1b, 0x71, 0x7f, 0xbe,
  0xcc, 0x3b, 0xa2, 0xbc, 0x7f, 0x71, 0xa3, 0xbe, 0x88, 0x10, 0x26, 0xbe,
  0xc6, 0xc6, 0x88, 0xbe, 0x3c, 0x9a, 0x81, 0x3d, 0xec, 0x4d, 0xb9, 0xbd,
  0x10, 0x38, 0x36, 0xbd, 0xcb, 0x12, 0x45, 0xbe, 0x09, 0xca, 0x01, 0xbe,
  0x07, 0x0b, 0x94, 0xbe, 0x6a, 0x65, 0x53, 0xbe, 0x02, 0x32, 0xb2, 0xbe,
  0x3c, 0x22, 0x99, 0xbe, 0x76, 0xba, 0x8f, 0xbe, 0xc1, 0x6f, 0xc8, 0xbd,
  0x41, 0x05, 0x34, 0xbe, 0xcb, 0xdb, 0x8f, 0xbe, 0x74, 0x01, 0xc2, 0xbe,
  0xa5, 0xf3, 0x60, 0xbe, 0xa2, 0xd9, 0x50, 0xbe, 0xee, 0x3c, 0x29, 0xbe,
  0x4d, 0xfb, 0x89, 0xbe, 0xa5, 0x15, 0xef, 0xbd, 0xae, 0xb7, 0xb2, 0xbe,
  0x64, 0xa1, 0xa1, 0xbe, 0xa6, 0x3d, 0x64, 0xbc, 0xde, 0x50, 0xbd, 0xbd,
  0x3c, 0x93, 0xad, 0xbe, 0x01, 0xc6, 0xca, 0xbd, 0x98, 0x55, 0xd0, 0xbd,
  0x2d, 0x5a, 0x34, 0xbe, 0x3e, 0xda, 0x39, 0xbe, 0x9e, 0xa2, 0x8c, 0xbe,
  0x70, 0x4b, 0xa2, 0x3e, 0x62, 0xa8, 0x82, 0xbc, 0xe5, 0x96, 0x0b, 0x3e,
  0x08, 0xb2, 0x49, 0x3e, 0xa9, 0xdc, 0x34, 0x3d, 0x37, 0x4a, 0x05, 0xbe,
  0x98, 0x84, 0xcc, 0xbd, 0x11, 0xed, 0x76, 0xbd, 0x26, 0x55, 0xc3, 0x3d,
  0x50, 0xe2, 0xca, 0xbc, 0x35, 0xeb, 0x34, 0xbe, 0xa4, 0x23, 0x06, 0x3e,
  0xce, 0x30, 0x98, 0x3d, 0x8e, 0xae, 0x29, 0xbe, 0x6c, 0x0a, 0x23, 0xbe,
  0x5e, 0x83, 0xc2, 0xbd, 0x32, 0x9c, 0xc2, 0xbd, 0x78, 0xef, 0x34, 0xbe,
  0x68, 0x3b, 0x80, 0xbe, 0x13, 0x43, 0xfb, 0xbd, 0xaf, 0x0a, 0x47, 0x3c,
  0x25, 0x81, 0x86, 0xbe, 0xfe, 0x67, 0xa6, 0xbc, 0xcb, 0x48, 0xb3, 0xbd,
  0x92, 0xc7, 0x19, 0xbe, 0xcb, 0x55, 0x89, 0x3d, 0x6b, 0xfb, 0x5c, 0xbd,
  0xf6, 0x31, 0x45, 0xbe, 0x0d, 0x73, 0x89, 0xbd, 0xd9, 0x7e, 0xfc, 0xbd,
  0x8f, 0xc2, 0x00, 0xbd, 0xd9, 0x03, 0x40, 0xbe, 0x94, 0x0a, 0x1c, 0xbc,
  0x9b, 0x5f, 0x7a, 0x3c, 0x6a, 0xf5, 0x97, 0xbe, 0x93, 0xf3, 0x8b, 0x3d,
  0x3b, 0x3f, 0x8d, 0xbe, 0x15, 0xea, 0x2b, 0xbb, 0xb1, 0x0a, 0x71, 0xbe,
  0x2b, 0x5e, 0x4e, 0x3d, 0x12, 0x23, 0x87, 0xbe, 0xbb, 0x7c, 0xe6, 0x3e,
  0x2a, 0x4a, 0x69, 0x3e, 0x15, 0x3d, 0xcd, 0x3e, 0xfd, 0x4c, 0xce, 0xbc,
  0x33, 0x62, 0x16, 0x3e, 0xbd, 0x78, 0xb5, 0x3d, 0x50, 0xb9, 0x67, 0x3d,
  0x12, 0x16, 0xe6, 0x3e, 0x01, 0x3c, 0xc5, 0x3d, 0xc8, 0x07, 0xee, 0x3d,
  0xa1, 0x79, 0x82, 0x3e, 0x59, 0xcf, 0x47, 0xbd, 0x41, 0xa0, 0x03, 0xbe,
  0xcb, 0x06, 0xdc, 0xbe, 0x1e, 0xdc, 0xb3, 0xbd, 0x76, 0xd3, 0x77, 0xbb,
  0x1b, 0x3e, 0x60, 0xbd, 0x40, 0xbf, 0xa5, 0xbe, 0xba, 0x93, 0xa7, 0xbc,
  0xba, 0xd0, 0x52, 0xbe, 0x60, 0xe0, 0xf7, 0xbd, 0xce, 0xfd, 0x7a, 0xbe,
  0x74, 0xa6, 0xe7, 0xbd, 0x4f, 0x97, 0xcc, 0xbe, 0x1e, 0xa7, 0x61, 0x3d,
  0xed, 0x37, 0x11, 0xbe, 0x8d, 0x7e, 0xb8, 0xbd, 0x70, 0x34, 0x67, 0xbd,
  0x61, 0xe7, 0xee, 0xbc, 0x43, 0xcd, 0xec, 0xbc, 0x66, 0x97, 0x89, 0xbd,
  0x1b, 0x49, 0xd3, 0x3d, 0x26, 0x0d, 0x5a, 0x3e, 0x70, 0xa7, 0x84, 0x3e,
  0x2b, 0xba, 0x6a, 0x3d, 0xf5, 0x04, 0x4f, 0x3e, 0xac, 0xca, 0x91, 0x3e,
  0x15, 0x4b, 0x91, 0x3d, 0x5b, 0x49, 0x2b, 0x3e, 0x52, 0x07, 0x08, 0x3d,
  0x16, 0xbb, 0x9c, 0x3d, 0x1a, 0xf4, 0xeb, 0x3e, 0x20, 0xa5, 0x6e, 0x3e,
  0x7e, 0x52, 0x69, 0x3e, 0x96, 0x2a, 0x9a, 0xbd, 0x4e, 0x1a, 0x2f, 0xbe,
  0xb4, 0x57, 0x8e, 0xbc, 0x69, 0x7b, 0x45, 0x3e, 0x98, 0x89, 0x51, 0x3e,
  0x5e, 0x9a, 0xaa, 0x3e, 0xf8, 0x0a, 0x2a, 0x3e, 0x60, 0xf7, 0xb7, 0x3d,
  0x57, 0xba, 0x0b, 0x3c, 0x48, 0x02, 0x14, 0xbe, 0x89, 0x34, 0x8a, 0xbe,
  0xf9, 0x9d, 0xc8, 0x3d, 0x49, 0x9b, 0xfa, 0xbc, 0x2c, 0x73, 0xeb, 0x3d,
  0x93, 0x82, 0xa0, 0x3d, 0x30, 0x9a, 0x7b, 0x3e, 0xab, 0x67, 0xbb, 0xbe,
  0xe8, 0xc5, 0x5a, 0xbe, 0x32, 0x76, 0x90, 0xbe, 0x45, 0x62, 0xd2, 0xbe,
  0x3c, 0x49, 0xbc, 0xbe, 0x16, 0x84, 0xa9, 0xbd, 0xe8, 0xb5, 0x8d, 0xbc,
  0x87, 0x16, 0x81, 0x3d, 0x2b, 0x30, 0xa0, 0x3d, 0xe4, 0x4a, 0x93, 0xbd,
  0xb4, 0x90, 0xea, 0xbd, 0x61, 0x7d, 0x04, 0x3d, 0xdc, 0x00, 0xdb, 0xbd,
  0xa1, 0xb8, 0x0b, 0x3e, 0x56, 0xb2, 0x2a, 0xbe, 0x0d, 0xc5, 0x89, 0x3c,
  0xd2, 0x21, 0x5b, 0x3e, 0xb0, 0x7b, 0xa2, 0x3d, 0xac, 0x21, 0x23, 0x3e,
  0x88, 0x8a, 0x0f, 0x3e, 0x98, 0x13, 0x7d, 0x3e, 0xda, 0x7d, 0x8f, 0x3e,
  0x44, 0x74, 0x81, 0x3e, 0x2b, 0xa5, 0x64, 0x3d, 0xf9, 0x5d, 0x6b, 0x3e,
  0x25, 0x64, 0xd1, 0xbd, 0xd7, 0x86, 0x03, 0x3e, 0x41, 0x34, 0x16, 0x3e,
  0x23, 0xea, 0x55, 0x3e, 0xe6, 0xaa, 0x0e, 0x3f, 0x8d, 0xe7, 0x0b, 0x3e,
  0xfb, 0x4d, 0xac, 0xbd, 0x32, 0xb3, 0x21, 0x3d, 0xbb, 0xb5, 0x3a, 0xbe,
  0xef, 0xaf, 0x55, 0xbe, 0xec, 0x6a, 0x48, 0xbe, 0x98, 0x3f, 0x2d, 0xbe,
  0xd6, 0x62, 0x86, 0xbd, 0x28, 0x84, 0xce, 0xbd, 0xcf, 0xdb, 0xb3, 0xbe,
  0x97, 0xf9, 0xaa, 0x3e, 0xad, 0xf5, 0x9b, 0xbe, 0xe5, 0x9a, 0x52, 0xbe,
  0xc9, 0xf5, 0x0e, 0xbf, 0x49, 0x3e, 0xdc, 0xbe, 0x7a, 0x2f, 0xef, 0xbe,
  0xfb, 0x94, 0x69, 0xbe, 0x2b, 0x68, 0x5d, 0xbe, 0x03, 0xab, 0xd1, 0x3d,
  0xa3, 0x5e, 0x50, 0xbe, 0xea, 0xc9, 0x98, 0xbd, 0x5a, 0x0a, 0x06, 0xbf,
  0xf0, 0xf3, 0xa4, 0xbe, 0x24, 0xc2, 0xee, 0xbe, 0x18, 0x29, 0x9c, 0xbe,
  0x9b, 0xbf, 0x3d, 0xbc, 0xee, 0xfa, 0x7e, 0xbe, 0x8e, 0xb4, 0xae, 0xbd,
  0x32, 0xdb, 0x30, 0xbe, 0xa8, 0x0f, 0xe3, 0xbc, 0xe4, 0x6d, 0x91, 0xbe,
  0xe8, 0xf9, 0xae, 0x3d, 0x8e, 0x2e, 0xfd, 0x3c, 0x39, 0x58, 0xf2, 0xbb,
  0x6d, 0x03, 0x99, 0xbe, 0x19, 0x6b, 0x24, 0xbe, 0xc3, 0x4c, 0x8c, 0xbe,
  0x2b, 0xb7, 0x70, 0xbe, 0x03, 0x03, 0x65, 0xbe, 0xf2, 0xf7, 0xa0, 0xbe,
  0x56, 0x2e, 0x96, 0xbe, 0x29, 0x9c, 0xba, 0xbe, 0x38, 0x2f, 0x53, 0xbe,
  0xaf, 0xa2, 0xae, 0x3d, 0x4b, 0xbe, 0x31, 0x3e, 0xaa, 0x62, 0xd5, 0xbd,
  0xe9, 0x51, 0x6e, 0xbe, 0x84, 0x0e, 0xfb, 0x3d, 0x2a, 0x3b, 0xc3, 0x3c,
  0x7a, 0x04, 0x82, 0xbc, 0x07, 0x8e, 0x08, 0x3d, 0x17, 0x22, 0x2b, 0x3e,
  0xb8, 0x46, 0x62, 0x3e, 0xec, 0x68, 0x05, 0xbe, 0x16, 0x2d, 0x82, 0xbd,
  0xdc, 0x74, 0x26, 0x3d, 0x50, 0x03, 0xb1, 0x3d, 0xd0, 0x49, 0x3f, 0x3c,
  0x1a, 0x15, 0x43, 0x3e, 0x40, 0xc7, 0x52, 0x3e, 0xc2, 0x4c, 0x9c, 0x3d,
  0xad, 0x1b, 0x82, 0x3e, 0xd4, 0x62, 0x8a, 0x3d, 0x9f, 0x3b, 0x69, 0x3e,
  0xc4, 0x35, 0xb6, 0x3c, 0x29, 0xbb, 0x35, 0xbd, 0x92, 0x68, 0x53, 0xbb,
  0x63, 0xe4, 0xf1, 0x3d, 0xc5, 0x60, 0x99, 0x3c, 0x3b, 0xd3, 0xa2, 0x3e,
  0xb8, 0x0d, 0x20, 0xbd, 0x35, 0xab, 0xff, 0xbc, 0xbf, 0x0c, 0x2e, 0x3d,
  0x80, 0x64, 0x7f, 0x3e, 0x8b, 0xd7, 0x92, 0xbe, 0xee, 0xa5, 0x86, 0xbe,
  0x1c, 0x8d, 0x48, 0xbe, 0x0f, 0x78, 0x00, 0xbe, 0xe8, 0x57, 0xc7, 0xbe,
  0x08, 0x6d, 0x9b, 0xbe, 0xfc, 0xe9, 0xb4, 0xbe, 0xdf, 0xbf, 0x88, 0xbe,
  0xd1, 0x10, 0xba, 0xbe, 0xc0, 0xf0, 0xc5, 0x3c, 0xd7, 0x3c, 0xa1, 0xba,
  0xb9, 0xec, 0xb0, 0x3d, 0xa6, 0x9a, 0xb0, 0xbd, 0x10, 0x46, 0x06, 0xbe,
  0xa6, 0xe9, 0x80, 0xbe, 0x94, 0x13, 0x86, 0x3d, 0xad, 0xaa, 0xb7, 0x3c,
  0xc2, 0xc7, 0xc8, 0xbc, 0x31, 0xa3, 0x3b, 0x3e, 0x41, 0x40, 0xc6, 0xbc,
  0xaa, 0xd0, 0x3b, 0x3e, 0x91, 0xcf, 0x9d, 0x3d, 0x3e, 0xd1, 0x68, 0x3e,
  0xd7, 0xfc, 0xef, 0xbd, 0xb3, 0x7b, 0x29, 0xbe, 0xae, 0x3e, 0x24, 0x3e,
  0x0e, 0xb1, 0x71, 0x3e, 0x4a, 0x37, 0xce, 0x3d, 0x52, 0x30, 0x4a, 0x3c,
  0xa5, 0x5d, 0xae, 0xbd, 0x92, 0xaa, 0x25, 0x3e, 0x21, 0xd9, 0x5b, 0x3e,
  0x1f, 0x74, 0x3b, 0xbb, 0x05, 0xbf, 0x2a, 0xbd, 0xd3, 0xbb, 0x9d, 0xbd,
  0xc2, 0xf5, 0xa2, 0xbd, 0xbc, 0x8b, 0x55, 0x3e, 0x0a, 0x7c, 0x68, 0x3e,
  0x67, 0xfa, 0x38, 0xbd, 0xc7, 0x77, 0x46, 0x3e, 0x13, 0xe1, 0x9a, 0x3e,
  0xe9, 0xb1, 0xbf, 0xbd, 0x86, 0xe2, 0x63, 0xbe, 0x6b, 0xba, 0xd1, 0xbc,
  0xb0, 0xfe, 0x92, 0xbe, 0x91, 0x20, 0xe7, 0xbe, 0xce, 0x73, 0xed, 0xbc,
  0xc9, 0x45, 0xcf, 0xbd, 0xe7, 0xc3, 0xac, 0xbe, 0x42, 0x6a, 0x27, 0xbe,
  0xa2, 0xb7, 0x42, 0xbe, 0x44, 0xd5, 0x3b, 0xbe, 0xe4, 0x73, 0x0a, 0xbe,
  0x48, 0x1c, 0x87, 0x3d, 0xd8, 0x6a, 0xa1, 0xbe, 0x6b, 0x96, 0xa7, 0x3d,
  0xd2, 0x98, 0xa9, 0x3d, 0xfb, 0xbe, 0xb2, 0x3c, 0xdf, 0xf9, 0x7e, 0xbd,
  0x2d, 0x34, 0x64, 0xbe, 0xcc, 0xe5, 0x51, 0x3e, 0x84, 0x36, 0x31, 0x3e,
  0xae, 0xd6, 0x16, 0xbe, 0x7a, 0xa3, 0xea, 0xbd, 0x04, 0x8f, 0x15, 0xbd,
  0x21, 0xf5, 0x42, 0x3c, 0x03, 0x50, 0x7b, 0xbc, 0x53, 0x50, 0x82, 0x3d,
  0x80, 0x4e, 0x28, 0x3e, 0x8a, 0xea, 0x69, 0x3d, 0xab, 0x32, 0x4f, 0x3e,
  0xaf, 0x4d, 0x14, 0x3d, 0x6b, 0x09, 0x3c, 0x3d, 0xb2, 0x88, 0x2f, 0x3e,
  0x6a, 0x20, 0x52, 0x3e, 0x11, 0x54, 0x05, 0x3e, 0x7b, 0xd2, 0x30, 0x3d,
  0x17, 0x23, 0x22, 0x3d, 0x1e, 0x73, 0x3e, 0x3e, 0x62, 0x32, 0x50, 0x3e,
  0x34, 0x20, 0xe7, 0x3d, 0xbd, 0x1a, 0x4d, 0xbd, 0x3c, 0x93, 0x84, 0xbd,
  0xa3, 0x11, 0x13, 0x3e, 0xf4, 0xda, 0x88, 0xbd, 0x0e, 0xb2, 0x79, 0xbd,
  0x52, 0xce, 0xc0, 0x3d, 0xbd, 0x84, 0x41, 0xbe, 0xbb, 0x56, 0x6b, 0xbe,
  0xde, 0xf7, 0xd1, 0xbd, 0xd1, 0x5d, 0x26, 0x3e, 0x6b, 0xf7, 0x22, 0x3e,
  0x2e, 0x59, 0x6a, 0xbd, 0xa2, 0xf7, 0x06, 0x3e, 0x3c, 0xd1, 0x3f, 0xbe,
  0xe3, 0xa0, 0x95, 0x3d, 0x95, 0xbf, 0x52, 0x3d, 0x6a, 0x54, 0x46, 0xbd,
  0x51, 0x98, 0x16, 0xbe, 0x1a, 0x93, 0x4e, 0xbe, 0x48, 0xdc, 0x02, 0x3e,
  0x1d, 0xbd, 0x5b, 0x3d, 0x1e, 0x6f, 0x32, 0xbe, 0xea, 0xd4, 0x0d, 0x3e,
  0xfc, 0x6c, 0x61, 0xbe, 0x48, 0x81, 0xcf, 0xbc, 0x45, 0xc0, 0xfa, 0xbd,
  0x13, 0x9c, 0x00, 0x3d, 0x94, 0x88, 0x5c, 0x3d, 0x5a, 0xf7, 0x12, 0xbe,
  0x43, 0xcd, 0x0f, 0x3e, 0xec, 0x8c, 0x45, 0xbe, 0x8e, 0x62, 0xce, 0x3d,
  0x3b, 0x17, 0x9c, 0x3d, 0xd0, 0x2f, 0x55, 0xbe, 0x76, 0x05, 0xd6, 0xbd,
  0x6d, 0xd3, 0x0c, 0xbe, 0x28, 0x30, 0x0e, 0xbe, 0x5e, 0xd9, 0x86, 0x3d,
  0xf2, 0xe4, 0xbf, 0xbd, 0xce, 0x41, 0x0a, 0xbe, 0xa5, 0xe7, 0x86, 0xbc,
  0x94, 0x14, 0x33, 0xbe, 0xa7, 0x2d, 0x45, 0xbe, 0x7d, 0x2b, 0x48, 0xbe,
  0xf8, 0x84, 0x72, 0x3d, 0x7a, 0x05, 0x43, 0xbe, 0x11, 0x64, 0xcc, 0xbd,
  0xd7, 0x33, 0x40, 0xbe, 0x23, 0xdd, 0x17, 0xbe, 0x00, 0x32, 0x0a, 0xbe,
  0xbe, 0x9b, 0x2c, 0x3d, 0xfa, 0xb9, 0xbf, 0xbd, 0x22, 0xd9, 0x68, 0x3d,
  0x8f, 0x3b, 0x37, 0xbe, 0x23, 0x3e, 0x2a, 0x3e, 0x50, 0x09, 0x03, 0x3e,
  0xb2, 0x38, 0xa5, 0xbd, 0xe9, 0xb0, 0x17, 0xbe, 0xae, 0x48, 0xa8, 0xbd,
  0x06, 0xbe, 0x38, 0xbc, 0x5b, 0x0a, 0x20, 0x3e, 0xed, 0x3c, 0x4d, 0x3d,
  0x92, 0x81, 0x00, 0x3d, 0x57, 0xf9, 0xdb, 0xbd, 0x6f, 0x01, 0xe8, 0xbd,
  0x48, 0xd6, 0x58, 0xbe, 0x14, 0x46, 0x12, 0xbe, 0x35, 0xc2, 0xb6, 0x3b,
  0x16, 0x98, 0x06, 0xbe, 0xc1, 0xc7, 0x42, 0xbd, 0xf3, 0xd8, 0xc6, 0xbd,
  0x1c, 0xe8, 0x7c, 0xbd, 0x00, 0xc1, 0x77, 0x3d, 0xdc, 0x37, 0x2c, 0xbe,
  0xaf, 0xa1, 0xc2, 0x3d, 0xe0, 0xe8, 0xf7, 0xbd, 0xf5, 0x72, 0xa9, 0x3d,
  0x4e, 0xc6, 0xf8, 0x3d, 0xa8, 0x8f, 0x37, 0xbe, 0x55, 0xca, 0x66, 0xbc,
  0x4c, 0x6a, 0x4d, 0xbe, 0xc9, 0xc2, 0xf7, 0x3c, 0x5c, 0xf6, 0x9d, 0x3d,
  0xfc, 0x88, 0x55, 0x3d, 0xc3, 0xa6, 0xdc, 0xbd, 0x93, 0xce, 0x0d, 0xbd,
  0x62, 0xca, 0x3f, 0xbe, 0xc8, 0x27, 0x4a, 0xbd, 0x12, 0x37, 0x54, 0xbe,
  0x3f, 0x93, 0x10, 0x3e, 0x28, 0x63, 0x96, 0x3c, 0x29, 0xcd, 0xb0, 0x3d,
  0x06, 0x86, 0xb7, 0x3d, 0x0d, 0xc1, 0x3f, 0xbe, 0x5d, 0x7a, 0xe5, 0xbd,
  0x3b, 0x6e, 0xcc, 0xbc, 0xc4, 0x08, 0x1a, 0x3e, 0x6b, 0x0f, 0x07, 0x3c,
  0xed, 0x07, 0x92, 0x3d, 0x4f, 0x0c, 0x9f, 0xbd, 0x5e, 0x10, 0x17, 0x3e,
  0xa6, 0xcd, 0xaa, 0x3d, 0x8f, 0xa4, 0x15, 0xbe, 0xb0, 0x93, 0x30, 0xbe,
  0xed, 0xd7, 0x76, 0xbd, 0x92, 0xb9, 0xac, 0x3d, 0x81, 0x6c, 0xcd, 0x3d,
  0xf8, 0x85, 0x74, 0xbd, 0x54, 0xf5, 0x08, 0x3e, 0x8d, 0xc3, 0x02, 0x3d,
  0x5d, 0xc6, 0x8f, 0x3d, 0xe7, 0x5c, 0x60, 0x3d, 0x40, 0x7f, 0x93, 0xbd,
  0x16, 0xcb, 0x03, 0xbe, 0xfb, 0x75, 0x49, 0xbe, 0x4d, 0xbc, 0xc1, 0x3d,
  0x0b, 0x7b, 0xc0, 0xbd, 0x28, 0x44, 0x04, 0xbe, 0xed, 0x85, 0xe4, 0x3d,
  0xfa, 0x47, 0x9b, 0xbc, 0x61, 0xb4, 0xf2, 0x3d, 0x7f, 0x4a, 0x59, 0x3d,
  0x2d, 0x51, 0x10, 0xbe, 0x3d, 0x90, 0x80, 0x3c, 0x03, 0xf9, 0xda, 0xbd,
  0xe6, 0xc7, 0x51, 0xbd, 0xf3, 0x32, 0xaf, 0xbd, 0x6e, 0x34, 0x41, 0x3c,
  0x39, 0xdc, 0x64, 0x3d, 0xab, 0xce, 0xa3, 0xbc, 0x04, 0x75, 0x99, 0x3e,
  0xe1, 0x34, 0x88, 0x3e, 0x1f, 0x89, 0x87, 0x3e, 0x6d, 0x76, 0xa0, 0x3c,
  0x06, 0x36, 0xa5, 0x3d, 0xc2, 0x5b, 0xd1, 0xbb, 0x5f, 0x71, 0xc2, 0x3e,
  0x9a, 0xf2, 0x7b, 0x3e, 0xa2, 0x21, 0xc7, 0xbc, 0x33, 0x5f, 0x47, 0x3e,
  0x92, 0xf9, 0x63, 0x3e, 0xa5, 0x6a, 0x03, 0x3e, 0x82, 0x2c, 0x24, 0x3e,
  0xb3, 0x7f, 0x15, 0x3e, 0x08, 0xb6, 0xc7, 0xbc, 0xd4, 0x19, 0xb0, 0x3d,
  0x16, 0xab, 0x03, 0x3e, 0x92, 0x24, 0xfc, 0xbd, 0xbe, 0x2e, 0x71, 0x3e,
  0xfb, 0x0e, 0xc1, 0x3d, 0x7e, 0xe8, 0xe1, 0x3d, 0xa2, 0xd1, 0x5d, 0x3e,
  0xd6, 0x4f, 0x5d, 0xbc, 0xa1, 0x5d, 0x59, 0x3e, 0xc1, 0x41, 0x03, 0x3e,
  0xcd, 0x80, 0x31, 0x3e, 0xc0, 0x2a, 0x01, 0x3e, 0x96, 0xc6, 0x28, 0xbd,
  0x00, 0xb9, 0xc1, 0x3d, 0x34, 0x92, 0xf9, 0xbd, 0x5c, 0x26, 0x4e, 0xbb,
  0x29, 0xce, 0x23, 0x3e, 0x82, 0x7d, 0x27, 0x3e, 0xb8, 0xb9, 0x5c, 0xbe,
  0xba, 0x64, 0x0f, 0xbe, 0x1f, 0x64, 0xc4, 0xbd, 0x9b, 0x2f, 0xea, 0x3d,
  0x83, 0xcd, 0x09, 0xbe, 0xb7, 0xe8, 0x06, 0x3e, 0xce, 0xe3, 0x3d, 0x3d,
  0x49, 0xdb, 0xfe, 0x3d, 0x44, 0x79, 0xf5, 0xbc, 0xb1, 0x99, 0xe5, 0x3d,
  0x93, 0x0d, 0xa3, 0x3e, 0x4a, 0xcb, 0x83, 0x3e, 0x44, 0x70, 0x25, 0x3d,
  0x2c, 0x2f, 0xb6, 0xbd, 0xa2, 0x23, 0x9b, 0x3e, 0x76, 0x96, 0xbd, 0x3e,
  0x1c, 0xb6, 0x8a, 0xbd, 0x2c, 0x96, 0x81, 0x3d, 0x3f, 0xac, 0xb8, 0xbd,
  0x09, 0x55, 0x18, 0x3e, 0x0e, 0x5f, 0x04, 0x3e, 0xa1, 0x66, 0x11, 0xba,
  0xbc, 0xd9, 0x09, 0x3e, 0xc5, 0xfe, 0x44, 0x3c, 0x9c, 0xfc, 0xe9, 0x3d,
  0xcf, 0x3c, 0x92, 0x3c, 0xb0, 0x19, 0x35, 0x3d, 0x17, 0x17, 0x12, 0x3e,
  0x68, 0xcf, 0xd6, 0x3b, 0x1e, 0x94, 0x06, 0xbc, 0x65, 0xec, 0x55, 0xbc,
  0xa6, 0xb8, 0x80, 0xbd, 0xcf, 0x91, 0x01, 0x3d, 0xa7, 0xff, 0xc8, 0xbd,
  0x36, 0x3f, 0x64, 0x3d, 0x3b, 0xba, 0x3a, 0xbe, 0x8a, 0x2c, 0xf7, 0xbd,
  0x53, 0xdf, 0xa9, 0xbb, 0x8e, 0xad, 0x0b, 0x3e, 0xcc, 0x58, 0xe5, 0x3d,
  0xe5, 0xd4, 0xa5, 0xbc, 0x7d, 0x52, 0x86, 0xbe, 0xf8, 0xe7, 0x1a, 0xbd,
  0x88, 0x3d, 0xc9, 0xbd, 0x63, 0x95, 0x80, 0xbd, 0x33, 0x2a, 0xf6, 0x3c,
  0xc9, 0xe5, 0xe8, 0xbd, 0xd2, 0x18, 0xe6, 0x3d, 0x89, 0x7d, 0x4e, 0x3b,
  0x0a, 0xa7, 0x13, 0x3e, 0xbb, 0x6e, 0x3c, 0x3e, 0x19, 0x31, 0x4c, 0x3e,
  0xbe, 0xc9, 0xc9, 0xbd, 0x8d, 0x4b, 0x07, 0xbe, 0x09, 0x2d, 0xac, 0x3d,
  0xd6, 0x69, 0x42, 0xbd, 0xc8, 0xc9, 0x0d, 0x3e, 0xa4, 0x99, 0x41, 0xbd,
  0x45, 0x2c, 0xfb, 0x3d, 0xf3, 0x22, 0xff, 0xbd, 0xad, 0x3f, 0x4f, 0xbe,
  0xf4, 0xba, 0x0d, 0xbe, 0x6b, 0x9d, 0x62, 0xbe, 0x90, 0xbb, 0xe3, 0xbd,
  0xae, 0x24, 0x00, 0x3e, 0xa1, 0x65, 0x6c, 0xbd, 0xe7, 0x17, 0x02, 0x3e,
  0xf8, 0xe4, 0x04, 0x3e, 0xc4, 0xc0, 0x22, 0xbe, 0xef, 0x08, 0x8b, 0x3c,
  0x2c, 0x66, 0x8b, 0x3b, 0x99, 0x3b, 0x05, 0x3e, 0xc4, 0x1c, 0x3b, 0xbe,
  0xfc, 0x78, 0xa1, 0xbd, 0xf4, 0xe6, 0x2c, 0xbe, 0x29, 0x12, 0x47, 0xbe,
  0x69, 0x26, 0x75, 0xbe, 0x7a, 0xe9, 0xa5, 0x3c, 0x50, 0xd8, 0x28, 0xbe,
  0x78, 0x9d, 0xf4, 0xbd, 0x08, 0x6a, 0x5d, 0xbd, 0x28, 0x35, 0x69, 0xbe,
  0x33, 0x33, 0x0d, 0x3c, 0x57, 0x04, 0x1e, 0xbc, 0xaf, 0xee, 0xcc, 0x3e,
  0xdf, 0x69, 0x61, 0x3c, 0x7b, 0x7a, 0xe9, 0x3e, 0x45, 0xf6, 0x81, 0x3e,
  0x83, 0x66, 0x52, 0x3e, 0x87, 0x7f, 0x34, 0x3d, 0xa7, 0x0b, 0x2d, 0x3e,
  0x36, 0x1c, 0xde, 0x3e, 0x60, 0x72, 0xf3, 0x3d, 0x68, 0x73, 0x64, 0x3e,
  0x3a, 0x65, 0x3a, 0x3e, 0x88, 0x53, 0xe7, 0xbd, 0x5c, 0xc3, 0x70, 0xbb,
  0x5a, 0x24, 0xce, 0x3d, 0x9a, 0xe4, 0xb8, 0xbc, 0x91, 0xc1, 0x86, 0x3e,
  0x14, 0x74, 0x5d, 0x3c, 0x51, 0x8d, 0x56, 0x3d, 0xeb, 0x59, 0xc4, 0xbc,
  0x43, 0xeb, 0x6a, 0x3d, 0x54, 0xfd, 0x72, 0x3d, 0xc0, 0x9e, 0x03, 0xbe,
  0x0d, 0x34, 0x88, 0xbe, 0xd8, 0x1d, 0x8b, 0xbc, 0x94, 0x2b, 0x51, 0x3d,
  0x5b, 0x5c, 0x43, 0x3e, 0x85, 0xf1, 0xb9, 0x3d, 0x6e, 0x77, 0x4d, 0x3e,
  0x6a, 0xa4, 0xa6, 0xbd, 0xfd, 0xc3, 0x68, 0x3e, 0x42, 0xb5, 0x61, 0xbd,
  0x20, 0x69, 0xc9, 0xbd, 0x96, 0x04, 0x63, 0xbd, 0xc7, 0xba, 0x20, 0x3e,
  0x55, 0xc6, 0x93, 0x3e, 0x05, 0x75, 0x2a, 0x3e, 0xad, 0xa1, 0x29, 0x3e,
  0x76, 0xb3, 0x87, 0x3e, 0x90, 0x56, 0x67, 0x3e, 0xc2, 0x79, 0x8f, 0x3e,
  0x6a, 0x18, 0x95, 0x3e, 0xa7, 0x18, 0xf0, 0x3e, 0x8e, 0x49, 0x1b, 0x3e,
  0xa3, 0xee, 0xc8, 0x3e, 0x0f, 0x01, 0x09, 0x3d, 0x91, 0x4a, 0x3c, 0x3e,
  0x69, 0xe7, 0x45, 0x3e, 0x57, 0x75, 0x0b, 0xbd, 0x28, 0x9e, 0x43, 0x3c,
  0xda, 0xca, 0x1a, 0x3e, 0x99, 0x76, 0x3c, 0xbe, 0x14, 0xc1, 0x2c, 0xbc,
  0x9e, 0xf2, 0x76, 0xbe, 0xc5, 0xd6, 0xf6, 0xbc, 0x43, 0x63, 0xca, 0xbd,
  0x68, 0x10, 0x58, 0xbe, 0xed, 0x6f, 0x41, 0xbd, 0x7c, 0x1f, 0x2b, 0x3d,
  0x82, 0x2e, 0xa1, 0xbe, 0x9f, 0xb0, 0x05, 0xbe, 0x6b, 0x2b, 0x0b, 0xbe,
  0xe4, 0x4c, 0x73, 0xbd, 0x62, 0x78, 0x8f, 0xbd, 0x60, 0xd3, 0x82, 0xbe,
  0x68, 0x5c, 0xa0, 0xbe, 0x87, 0x53, 0x42, 0xbe, 0xc2, 0x78, 0x05, 0xbe,
  0xe1, 0x8b, 0x1d, 0xbe, 0x31, 0x1a, 0x3c, 0xbe, 0x6b, 0x78, 0x8b, 0xbd,
  0x9c, 0x77, 0x4f, 0x3c, 0x24, 0x08, 0x32, 0xbe, 0xe0, 0xfa, 0x18, 0xbe,
  0xc9, 0xa3, 0x3a, 0xbe, 0x64, 0xa7, 0x96, 0x3d, 0x5a, 0xb6, 0x3c, 0x3e,
  0x35, 0x2c, 0x08, 0x3e, 0xa5, 0xa1, 0xc8, 0x3d, 0xf0, 0xd0, 0x8e, 0xbb,
  0x8b, 0x2a, 0xdc, 0xbc, 0x47, 0xb4, 0xb6, 0xbc, 0xac, 0x5c, 0x81, 0x3a,
  0x07, 0x6f, 0x6f, 0x3e, 0x2d, 0xa2, 0x39, 0x3e, 0xdc, 0x9b, 0xad, 0x3e,
  0x2c, 0xff, 0x89, 0x3d, 0xb3, 0x9c, 0x57, 0x3e, 0x1c, 0x9b, 0x99, 0x3e,
  0x0e, 0x0e, 0x0f, 0xbe, 0x4b, 0xa3, 0x3c, 0xbd, 0x6a, 0x02, 0xd5, 0xbd,
  0x54, 0x29, 0x5b, 0xbc, 0x72, 0xfd, 0x6f, 0xbd, 0x64, 0xf1, 0xb5, 0xbd,
  0x82, 0x1b, 0x9d, 0xbd, 0x7e, 0xca, 0x89, 0xbe, 0x58, 0x2e, 0xe7, 0xbd,
  0x3d, 0x66, 0x2b, 0xbe, 0x0b, 0x32, 0x9e, 0xbe, 0xda, 0x6e, 0xb5, 0xbe,
  0x2c, 0xec, 0x53, 0xbe, 0xed, 0x30, 0x95, 0xbe, 0x33, 0xd7, 0x21, 0xbe,
  0xd2, 0x2a, 0xc4, 0xbe, 0xd8, 0x90, 0xb6, 0xbe, 0x94, 0xcf, 0xe3, 0xbe,
  0x7a, 0xb9, 0x4d, 0xbe, 0x56, 0x7e, 0xdb, 0xbe, 0x43, 0x23, 0xb4, 0xbe,
  0x86, 0x9f, 0x92, 0xbe, 0xaa, 0xfc, 0x0e, 0xbe, 0x53, 0xbf, 0x14, 0xbf,
  0x34, 0x73, 0xb2, 0xbe, 0x40, 0x3b, 0xf8, 0xbe, 0xfb, 0xb7, 0xe3, 0xbe,
  0x41, 0x33, 0xa8, 0xbe, 0x3e, 0xbf, 0xe2, 0xbe, 0xa9, 0xd0, 0x67, 0xbe,
  0x55, 0x64, 0x92, 0xbe, 0xfb, 0x38, 0xbf, 0xbe, 0x21, 0xe5, 0x01, 0xbe,
  0xae, 0x3a, 0x70, 0xbe, 0x43, 0xb5, 0x9e, 0xbe, 0xae, 0x26, 0x80, 0x3e,
  0x05, 0x67, 0x16, 0x3e, 0x55, 0x51, 0x6c, 0x3d, 0x38, 0xee, 0xd7, 0x3d,
  0xc5, 0xe7, 0x9e, 0x3e, 0x1a, 0x5e, 0xc4, 0x3e, 0x0a, 0xc6, 0x73, 0x3e,
  0x3c, 0xe6, 0x57, 0x3e, 0xd3, 0x1a, 0x54, 0x3e, 0x30, 0xf3, 0xb4, 0x3e,
  0x10, 0x6b, 0xfc, 0xbd, 0x59, 0x9f, 0x2e, 0x3d, 0x7b, 0x04, 0x3c, 0x3e,
  0x90, 0x0a, 0x5e, 0xbd, 0xcb, 0xd0, 0x00, 0x3e, 0x39, 0x3d, 0x98, 0xbd,
  0xf9, 0x0b, 0x4c, 0xbd, 0x1e, 0x28, 0x3a, 0x3e, 0x8f, 0xa8, 0x2d, 0x3e,
  0x89, 0xe9, 0x08, 0x3c, 0xf3, 0x24, 0x8e, 0x3d, 0x7b, 0x91, 0xd9, 0x3d,
  0x35, 0x79, 0x29, 0xbd, 0xaa, 0x7a, 0x2e, 0xbe, 0x05, 0x43, 0x18, 0x3e,
  0xb3, 0x55, 0x10, 0xbb, 0x32, 0xf4, 0x1b, 0xbe, 0x71, 0xec, 0x00, 0xbe,
  0x31, 0x8b, 0xbf, 0xbc, 0x33, 0x89, 0x9d, 0xbc, 0x73, 0x47, 0x9d, 0xbd,
  0xdb, 0xf0, 0x9a, 0x3b, 0xd5, 0x0f, 0xfa, 0x3d, 0x76, 0x5f, 0x5e, 0xbe,
  0x5d, 0xf8, 0x4a, 0xbe, 0xe5, 0xfb, 0x86, 0x3d, 0xe2, 0x3a, 0x46, 0xbe,
  0x17, 0x7a, 0x15, 0xbe, 0x80, 0x02, 0xa5, 0xbe, 0x1f, 0x2e, 0x82, 0xbe,
  0x5c, 0x5d, 0x7d, 0xbe, 0x1e, 0xd0, 0x5d, 0x3e, 0x3c, 0x67, 0xa8, 0x3e,
  0xe8, 0x92, 0xba, 0x3e, 0xc7, 0x31, 0x28, 0x3e, 0x9a, 0x94, 0x5f, 0x3e,
  0x56, 0xe9, 0xb1, 0x3e, 0x12, 0x9f, 0xb1, 0x3e, 0x2d, 0x7b, 0x74, 0x3d,
  0x33, 0xa2, 0x3c, 0x3d, 0x5c, 0xcf, 0x68, 0x3e, 0x87, 0x3b, 0x82, 0xbd,
  0x02, 0xd6, 0x45, 0x3e, 0x1e, 0x5b, 0x83, 0x3c, 0x17, 0x52, 0x60, 0x3e,
  0xf4, 0x05, 0x69, 0x3e, 0x27, 0xf7, 0x4a, 0x3e, 0x44, 0x43, 0x03, 0xbe,
  0xe3, 0x69, 0xc5, 0xbc, 0xad, 0xe0, 0x35, 0x3c, 0xdf, 0x25, 0x04, 0x3e,
  0xfc, 0x3f, 0x47, 0x3d, 0xac, 0xea, 0x1c, 0x3d, 0xcd, 0x07, 0x43, 0xbe,
  0x28, 0x0d, 0x42, 0xbd, 0x1e, 0xe7, 0xe2, 0xbd, 0xe2, 0xb2, 0xda, 0xbd,
  0x98, 0x07, 0x27, 0xbe, 0x5e, 0xf2, 0x75, 0xbd, 0x50, 0x2d, 0x0a, 0xbe,
  0x69, 0x22, 0x1d, 0x3d, 0x51, 0x05, 0x9f, 0xbe, 0xb3, 0xc5, 0x24, 0xbe,
  0x26, 0x73, 0x83, 0xbe, 0xf8, 0x50, 0xf9, 0xbd, 0x67, 0x80, 0x0b, 0xbe,
  0x12, 0x37, 0x02, 0xbe, 0x8b, 0x05, 0x0c, 0xbe, 0xae, 0x79, 0x31, 0xbe,
  0xb4, 0x3f, 0xaa, 0xbe, 0xd4, 0xe5, 0x47, 0xbe, 0xad, 0x41, 0xcf, 0xbe,
  0x83, 0x50, 0x2c, 0x3d, 0xb7, 0xe6, 0xbf, 0x3e, 0x48, 0x6c, 0xb3, 0x3d,
  0x51, 0x8e, 0x85, 0x3e, 0x6c, 0x09, 0x98, 0x3e, 0xf3, 0xb5, 0xcc, 0x3e,
  0xd8, 0x4e, 0xb6, 0x3d, 0xf0, 0x63, 0x24, 0x3e, 0xd5, 0x01, 0x83, 0x3e,
  0xb4, 0x6b, 0x87, 0x3e, 0x9f, 0xd7, 0xf6, 0x3b, 0x25, 0x55, 0x46, 0x3e,
  0x22, 0x75, 0x7b, 0x3e, 0xd1, 0x76, 0x56, 0x3d, 0x2f, 0x99, 0xba, 0x3b,
  0x13, 0x38, 0x91, 0x3e, 0xcd, 0xef, 0x88, 0xbc, 0x1e, 0x66, 0x02, 0x3e,
  0xcb, 0xf3, 0x88, 0xbd, 0xf9, 0xfb, 0xba, 0xbd, 0x57, 0x1c, 0xdf, 0xbc,
  0x13, 0x64, 0x32, 0xbd, 0xca, 0xdd, 0xcf, 0xbd, 0x97, 0xa1, 0xa3, 0x3d,
  0xe9, 0x31, 0x4c, 0x3e, 0x8d, 0x8e, 0x05, 0x3d, 0x90, 0xac, 0x28, 0xbe,
  0xff, 0x8c, 0x01, 0x3d, 0x14, 0x1e, 0xd7, 0x3d, 0x9a, 0x96, 0x14, 0xbe,
  0x0f, 0xa7, 0x87, 0xbe, 0x4b, 0x19, 0x86, 0xbe, 0x86, 0x73, 0x87, 0x3d,
  0xa5, 0x49, 0x18, 0x3c, 0xda, 0x3b, 0xf5, 0xbc, 0x9c, 0xfa, 0x99, 0xbe,
  0x48, 0xe3, 0x49, 0xbe, 0x30, 0x78, 0x75, 0xbd, 0x79, 0x0a, 0x90, 0xbe,
  0xa7, 0x2d, 0x99, 0xbe, 0x4b, 0xed, 0xc7, 0xbe, 0xf2, 0xdb, 0xff, 0xff,
  0x04, 0x00, 0x00, 0x00, 0x40, 0x1f, 0x00, 0x00, 0x12, 0x4e, 0x82, 0x3c,
  0x05, 0x06, 0x80, 0x3e, 0xe7, 0x9c, 0x8c, 0x3d, 0x29, 0xd8, 0x83, 0x3d,
  0xdc, 0x38, 0x86, 0x3e, 0x36, 0xa4, 0x67, 0x3c, 0xd4, 0x8e, 0x13, 0xbf,
  0x79, 0xa1, 0x40, 0xbe, 0x7e, 0xf4, 0x25, 0x3e, 0x35, 0x04, 0xa0, 0x3d,
  0x6d, 0x51, 0x81, 0x3e, 0x78, 0x3e, 0x10, 0xbe, 0x24, 0xf8, 0xd3, 0xbd,
  0x2b, 0x97, 0x2a, 0x3e, 0x08, 0x0c, 0x54, 0xbe, 0x6d, 0x7c, 0x5c, 0xbd,
  0x3d, 0x43, 0xc9, 0x3d, 0xfc, 0x35, 0x56, 0x3d, 0xb9, 0x76, 0x56, 0x3e,
  0x67, 0xbc, 0x40, 0xbe, 0x93, 0x60, 0x86, 0xbe, 0x20, 0x44, 0x2a, 0x3e,
  0xb4, 0xf3, 0x45, 0xbe, 0x59, 0x83, 0xf4, 0xbd, 0x48, 0x1e, 0x77, 0xbe,
  0xec, 0x18, 0x1c, 0xbe, 0xaf, 0xfc, 0x02, 0x3e, 0x50, 0x86, 0x9b, 0xbd,
  0xf3, 0x8d, 0x18, 0x3e, 0x98, 0xa5, 0xd0, 0x3e, 0x43, 0xc3, 0x26, 0xbe,
  0x26, 0xb9, 0x41, 0xbe, 0x18, 0xa9, 0x78, 0x3e, 0xc5, 0x1b, 0x21, 0xbe,
  0x92, 0xd3, 0xdf, 0x3e, 0x7c, 0x63, 0x38, 0xbe, 0xff, 0x50, 0xc6, 0xbe,
  0xfc, 0x10, 0x70, 0x3e, 0x3d, 0x2a, 0xaa, 0xbd, 0xbc, 0xd4, 0x51, 0xbe,
  0x74, 0xcc, 0x11, 0x3f, 0x93, 0x02, 0x14, 0xbe, 0x29, 0x30, 0xa9, 0x3c,
  0x96, 0x37, 0xc5, 0x3d, 0xda, 0x5a, 0x00, 0x3e, 0x2d, 0x96, 0x14, 0x3f,
  0x40, 0xe9, 0x43, 0x3f, 0xd3, 0x3f, 0xc7, 0xbe, 0xfa, 0xb4, 0xa9, 0x3e,
  0x05, 0x29, 0x32, 0x3e, 0xb9, 0x63, 0x53, 0x3e, 0xca, 0x9a, 0x20, 0xbe,
  0xfc, 0xff, 0xa1, 0x3e, 0x78, 0x45, 0x7e, 0x3d, 0xee, 0x2f, 0xc1, 0xbe,
  0x7e, 0x99, 0xfc, 0x3e, 0x57, 0x3c, 0x21, 0x3f, 0xfb, 0xad, 0x76, 0xbe,
  0xf2, 0x08, 0x6f, 0x3e, 0xef, 0xd0, 0x96, 0x3c, 0x77, 0x0e, 0x80, 0x3d,
  0x19, 0xe4, 0xf6, 0x3d, 0xa6, 0xfb, 0x4a, 0x3f, 0xea, 0x83, 0x05, 0xbf,
  0xb2, 0xa2, 0x37, 0x3e, 0x9a, 0x06, 0xe5, 0x3d, 0x4b, 0x63, 0x78, 0x3e,
  0x24, 0x20, 0x65, 0x3c, 0x6e, 0x05, 0x0b, 0xbe, 0xd1, 0xb6, 0x39, 0xbd,
  0x0f, 0xba, 0x80, 0xbe, 0x74, 0x91, 0x14, 0xbe, 0x59, 0x64, 0x98, 0xbd,
  0xdc, 0x9e, 0xfd, 0xbd, 0xe2, 0x01, 0x92, 0xbe, 0x65, 0x6a, 0x68, 0xbe,
  0xc5, 0x21, 0x8a, 0x3e, 0xbf, 0x80, 0x4b, 0xbe, 0xff, 0xec, 0xd2, 0x3c,
  0x2f, 0x68, 0xb0, 0xbd, 0x07, 0xa2, 0xe2, 0x3d, 0xc4, 0xa2, 0x19, 0x3e,
  0x95, 0x63, 0xb9, 0x3e, 0x6f, 0x51, 0xb5, 0xbe, 0x22, 0x57, 0x61, 0xbe,
  0xac, 0xe4, 0x24, 0x3e, 0x3b, 0x60, 0x1d, 0xbe, 0x49, 0xe0, 0x45, 0xbd,
  0x44, 0x01, 0x0a, 0xbd, 0xd8, 0xa7, 0x50, 0xbe, 0xfb, 0x7c, 0xfa, 0xbc,
  0x71, 0x72, 0x1b, 0x3c, 0xac, 0x39, 0x88, 0x3e, 0xfd, 0x4e, 0x21, 0x3e,
  0xdd, 0xcb, 0x6a, 0x3e, 0xa1, 0x12, 0xa7, 0xbe, 0xf4, 0x5e, 0x52, 0x3e,
  0x52, 0x99, 0x76, 0x3d, 0x30, 0x65, 0x91, 0x3e, 0x0e, 0x22, 0x4f, 0xbe,
  0x12, 0x52, 0xad, 0xbc, 0xb2, 0x27, 0x1a, 0x3e, 0x30, 0x9e, 0x68, 0xbe,
  0x8d, 0xe9, 0x60, 0x3e, 0x65, 0x99, 0xb0, 0x3c, 0xcf, 0x9b, 0x03, 0xbe,
  0xa4, 0xec, 0xde, 0x3d, 0x4b, 0xf3, 0x09, 0xbe, 0x39, 0xfe, 0x55, 0x3e,
  0x53, 0x7f, 0xcb, 0xbd, 0x36, 0xb9, 0x7b, 0x3e, 0x08, 0xf3, 0x01, 0xbf,
  0xfb, 0x7c, 0x01, 0x3e, 0xc7, 0xf7, 0x68, 0xbd, 0xd3, 0xb5, 0xe2, 0xba,
  0x94, 0xee, 0xbd, 0x3b, 0x6a, 0xbe, 0x9f, 0x3c, 0x5d, 0x09, 0x20, 0x3d,
  0xa9, 0xf1, 0x2a, 0xbe, 0x0d, 0x80, 0xae, 0x3c, 0x16, 0xec, 0x91, 0xbd,
  0x04, 0xda, 0x49, 0xbe, 0x93, 0x1c, 0x06, 0xbc, 0xab, 0xb1, 0x51, 0xbe,
  0xfe, 0x1a, 0x2f, 0x3e, 0x65, 0x4c, 0x4b, 0xbe, 0x48, 0xa0, 0x44, 0x3e,
  0x2e, 0x6a, 0x31, 0xbd, 0xa5, 0xd4, 0x83, 0xbd, 0x90, 0xd0, 0xbc, 0x3d,
  0x53, 0xf7, 0xef, 0xbd, 0x93, 0x7f, 0x5e, 0x3c, 0xd3, 0xa9, 0x84, 0xbd,
  0xa4, 0x2c, 0xb9, 0xbd, 0xe2, 0x8e, 0xcc, 0xbc, 0x52, 0xa3, 0xa8, 0x3c,
  0x1b, 0xbd, 0x5e, 0xbe, 0xe5, 0x6c, 0x21, 0x3e, 0x39, 0x44, 0x06, 0xbc,
  0xd0, 0xb0, 0xe0, 0xbd, 0x0b, 0x93, 0x8b, 0x3d, 0x72, 0x1b, 0x43, 0x3e,
  0x75, 0xf7, 0x14, 0x3e, 0x97, 0xa2, 0x62, 0xbe, 0x12, 0x86, 0x92, 0x3d,
  0x79, 0x44, 0x9e, 0xbd, 0x4b, 0xd7, 0x80, 0xbc, 0x16, 0x87, 0x12, 0x3e,
  0x1e, 0xb9, 0x45, 0xbd, 0x5f, 0xdb, 0x09, 0x3d, 0xc4, 0x21, 0x29, 0xbe,
  0xec, 0x2f, 0xcf, 0x3d, 0xfb, 0xdf, 0xaf, 0x3d, 0x02, 0xa4, 0x22, 0xbd,
  0xb5, 0xa4, 0x9d, 0xbc, 0x67, 0x50, 0x00, 0x3c, 0x4a, 0xc4, 0xed, 0x3d,
  0x08, 0x67, 0x96, 0xbd, 0xa4, 0xe4, 0x7d, 0x3d, 0x44, 0xf1, 0x2f, 0xbd,
  0xfa, 0xad, 0x7a, 0x3c, 0x82, 0x68, 0x2a, 0x3d, 0x71, 0xcf, 0x03, 0xbe,
  0xc4, 0x2b, 0xe4, 0xba, 0xb3, 0x8f, 0x5d, 0xbd, 0x77, 0xe9, 0x0f, 0xbd,
  0xb0, 0x5c, 0xbe, 0xbd, 0xc1, 0x8e, 0xd8, 0x3d, 0x7c, 0x74, 0x2a, 0x3e,
  0x29, 0x2d, 0x89, 0xbd, 0xcc, 0xf5, 0xf4, 0x3c, 0xc7, 0x0c, 0x6e, 0xbe,
  0xfc, 0x4c, 0x0d, 0xbc, 0x11, 0xda, 0xbb, 0xbd, 0xfc, 0x5e, 0x40, 0xbd,
  0x8f, 0x89, 0xc2, 0x3e, 0xf7, 0x9c, 0x90, 0xbd, 0xc1, 0x48, 0x39, 0x3e,
  0x2a, 0x3c, 0x39, 0x3e, 0xfb, 0x79, 0x69, 0xbe, 0x40, 0x0d, 0x08, 0x3d,
  0xc5, 0x78, 0xf0, 0x3c, 0x8b, 0x25, 0x8c, 0x3d, 0x40, 0xd8, 0xa7, 0x3d,
  0x55, 0xfc, 0x1e, 0x3e, 0x5b, 0xad, 0xf2, 0xbd, 0x50, 0xf2, 0xdd, 0x3d,
  0xef, 0x9e, 0x8e, 0xbd, 0x5b, 0xed, 0x2f, 0x3e, 0x2c, 0x5b, 0xc8, 0x3d,
  0xd6, 0xe9, 0x1a, 0xbd, 0x01, 0x16, 0xa6, 0xbe, 0xd9, 0xcf, 0x3c, 0x3e,
  0xe4, 0x76, 0x1c, 0x3e, 0xc5, 0xd4, 0xa7, 0x3c, 0xe2, 0x28, 0x7e, 0xbe,
  0xe8, 0x04, 0xe4, 0x3d, 0xc0, 0xfe, 0x8a, 0x3c, 0x01, 0x89, 0x65, 0xbe,
  0xd2, 0x44, 0xc4, 0xbc, 0x57, 0x73, 0x7f, 0xbd, 0x1a, 0x31, 0x93, 0x3c,
  0xa9, 0xbc, 0x72, 0x3b, 0xdd, 0xf4, 0x21, 0xbd, 0x2a, 0xf9, 0x58, 0x3e,
  0x3c, 0xd3, 0xb0, 0xbb, 0x24, 0x67, 0xac, 0xbc, 0xb7, 0x7a, 0xb2, 0xbd,
  0xd6, 0x35, 0x1c, 0x3e, 0x27, 0x51, 0xda, 0x3d, 0x3c, 0xbb, 0x28, 0x3e,
  0xbf, 0x2b, 0x84, 0xbe, 0x06, 0xb8, 0xd2, 0x3c, 0x8e, 0x83, 0xd0, 0x3b,
  0x86, 0xc0, 0x99, 0x3b, 0x5c, 0xe6, 0x5a, 0x3c, 0xe7, 0xcf, 0x7d, 0xbc,
  0x71, 0x03, 0xb8, 0x3c, 0x14, 0xff, 0x88, 0x3d, 0x65, 0xa1, 0x0d, 0xbe,
  0x31, 0x52, 0x3c, 0x3e, 0x39, 0x7d, 0x20, 0x3d, 0xd1, 0x5d, 0xb1, 0xbc,
  0xf8, 0x58, 0x26, 0x3c, 0x2a, 0xe2, 0xcb, 0x3d, 0x41, 0x10, 0x58, 0x3e,
  0xdd, 0x3c, 0xbd, 0x3d, 0x9f, 0x1f, 0x94, 0xbd, 0xf3, 0xdf, 0xb5, 0x3d,
  0xf4, 0x3a, 0xa8, 0x3d, 0xdd, 0x76, 0xf9, 0x3d, 0x7a, 0x45, 0x8e, 0xbc,
  0x24, 0xc6, 0x4f, 0x3b, 0xed, 0x75, 0x82, 0x3c, 0xfd, 0xd3, 0x7c, 0x3b,
  0x43, 0xd5, 0x15, 0xbe, 0x86, 0xa4, 0x81, 0x3e, 0xc3, 0xc8, 0x56, 0x3d,
  0x40, 0x13, 0xbe, 0x3c, 0x39, 0x24, 0xf5, 0xbe, 0xba, 0xd3, 0x6a, 0x3d,
  0x87, 0x2d, 0x4f, 0x3d, 0x21, 0x7a, 0x88, 0xbb, 0xbb, 0x1c, 0x26, 0x3e,
  0x2e, 0x47, 0x4d, 0x3e, 0xde, 0xda, 0x69, 0x3d, 0xaa, 0xf2, 0x33, 0xbe,
  0x45, 0xd8, 0x90, 0xbd, 0x69, 0x26, 0x62, 0xbe, 0x51, 0x73, 0x17, 0xbc,
  0x74, 0x2c, 0xf0, 0x3c, 0xce, 0x2f, 0x0a, 0xbe, 0x18, 0x79, 0xe4, 0x3d,
  0xe7, 0x6c, 0x08, 0x3d, 0x86, 0x91, 0x10, 0x3d, 0xd6, 0x06, 0xc4, 0xbd,
  0x45, 0xc9, 0xf5, 0x3d, 0x06, 0xc9, 0x28, 0x3e, 0x47, 0xe3, 0xc0, 0x3c,
  0xcd, 0xfd, 0x1a, 0x3e, 0xf4, 0x7e, 0x11, 0x3e, 0xd1, 0xd7, 0x1b, 0xbc,
  0x09, 0xcb, 0xd4, 0xbd, 0xe2, 0xc2, 0x05, 0xbd, 0xf2, 0x31, 0xb4, 0xbc,
  0xc5, 0x0b, 0x68, 0xbe, 0x2a, 0x57, 0x88, 0x3e, 0xd2, 0xbd, 0x10, 0xbe,
  0x4d, 0x34, 0x02, 0x3e, 0xc4, 0x36, 0x95, 0x3d, 0x23, 0x00, 0x5e, 0x3e,
  0xd1, 0x14, 0xaf, 0x3d, 0x85, 0x9a, 0xd0, 0x3d, 0xf3, 0x47, 0x69, 0xbe,
  0x82, 0x2e, 0x02, 0x3d, 0xb5, 0x61, 0xd5, 0xbd, 0xff, 0x49, 0xc8, 0xbb,
  0x01, 0x2e, 0x6f, 0xbd, 0x0f, 0x82, 0x5f, 0xbc, 0xb8, 0x57, 0x4d, 0x3e,
  0xf1, 0xcb, 0xc5, 0xbe, 0xda, 0xf5, 0xb0, 0xbe, 0x05, 0x3a, 0x2e, 0x39,
  0xce, 0x73, 0x9b, 0xbe, 0xc2, 0x88, 0x74, 0x3e, 0xba, 0x33, 0x93, 0x3d,
  0xa8, 0x45, 0x40, 0x3e, 0xc5, 0xd2, 0xca, 0x3d, 0x13, 0xfc, 0x1d, 0x3e,
  0x23, 0x08, 0x1a, 0xbe, 0x77, 0x79, 0xbe, 0x3d, 0xf1, 0x5e, 0x78, 0xbe,
  0x1d, 0x46, 0xae, 0x3d, 0x51, 0xa9, 0x60, 0x3d, 0xa0, 0x2e, 0x29, 0xbe,
  0x00, 0xd3, 0x11, 0x3d, 0x9f, 0x0d, 0x84, 0xbe, 0xa4, 0x23, 0xe2, 0xbe,
  0x5e, 0x69, 0x12, 0x3e, 0xc6, 0x71, 0x8c, 0xbe, 0xa8, 0x71, 0x1b, 0x3e,
  0x6b, 0x09, 0xa1, 0x3d, 0x91, 0x60, 0xe4, 0x3c, 0x76, 0x9f, 0xef, 0xbe,
  0x79, 0x79, 0x02, 0x3e, 0x62, 0x50, 0x5e, 0xbe, 0x60, 0x49, 0x09, 0xbd,
  0x21, 0x55, 0xa3, 0xbe, 0x93, 0xa6, 0xed, 0xbd, 0xa6, 0xf8, 0x90, 0x3d,
  0x1b, 0xd7, 0x48, 0xbe, 0x29, 0xda, 0xdb, 0x3b, 0x6d, 0xb7, 0x67, 0xbe,
  0x3b, 0xc3, 0x21, 0xbf, 0xa1, 0xb1, 0x05, 0xbd, 0xcc, 0x2f, 0x6f, 0xbe,
  0x1f, 0x7f, 0xd6, 0x3d, 0xa7, 0xd7, 0x08, 0x3e, 0xf4, 0x95, 0x29, 0xbe,
  0x03, 0x07, 0xd3, 0xbe, 0x93, 0x57, 0xcd, 0xbd, 0xf3, 0x55, 0xf8, 0xbd,
  0x59, 0xb7, 0x1a, 0x3e, 0x7f, 0x37, 0x0b, 0xbe, 0x50, 0xec, 0xcc, 0x3b,
  0x42, 0x84, 0x11, 0x3d, 0x9c, 0xe6, 0x17, 0x3d, 0x45, 0xb2, 0x4b, 0x3d,
  0x4f, 0xea, 0x18, 0xbe, 0x50, 0x7d, 0x9e, 0xbe, 0xe9, 0x61, 0x15, 0x3e,
  0xfa, 0xa5, 0xed, 0xbd, 0xef, 0x3d, 0x9e, 0x3c, 0xed, 0xdd, 0x31, 0x3d,
  0xe2, 0x94, 0x6a, 0xbd, 0xcd, 0x8b, 0x1c, 0xbf, 0x10, 0x20, 0x81, 0x3e,
  0xc5, 0x4b, 0x56, 0x3d, 0xec, 0x5d, 0x2c, 0x3e, 0xfc, 0x37, 0xf6, 0xbd,
  0xf5, 0x25, 0xa5, 0x3d, 0x53, 0x39, 0x9e, 0x3d, 0x09, 0xdb, 0x0b, 0xbe,
  0x72, 0xba, 0x5a, 0x3e, 0x55, 0x18, 0x24, 0xbe, 0x12, 0x63, 0xcb, 0xbe,
  0xf1, 0x09, 0x1a, 0x3e, 0x8f, 0xf3, 0x9a, 0xbe, 0x81, 0xc6, 0x18, 0x3e,
  0x0b, 0x09, 0xca, 0x3d, 0x9c, 0xf3, 0x21, 0x3e, 0x8c, 0x45, 0x16, 0xbf,
  0x54, 0xd0, 0xc5, 0x3d, 0xf7, 0x93, 0x5e, 0x3c, 0xb3, 0x37, 0xfb, 0x3d,
  0x15, 0x2b, 0xf0, 0xbd, 0x74, 0xcc, 0x7c, 0x3d, 0x5e, 0x73, 0x21, 0xbd,
  0x42, 0x8d, 0xb5, 0xbd, 0xe0, 0x3b, 0x11, 0x3e, 0x74, 0x8a, 0xbd, 0xbe,
  0x4d, 0x3f, 0x8e, 0xbe, 0x0c, 0x3b, 0xfe, 0xbc, 0x63, 0xd7, 0xb6, 0xbe,
  0x19, 0x69, 0x43, 0x3e, 0x3b, 0x0a, 0xbf, 0x3d, 0x58, 0xa9, 0xb8, 0x3d,
  0xb5, 0x91, 0x28, 0xbf, 0x02, 0xf6, 0x44, 0x3e, 0x02, 0x80, 0x82, 0xbe,
  0xac, 0x30, 0x80, 0x3e, 0x1d, 0x72, 0xc0, 0xbe, 0x46, 0x4c, 0xb1, 0x3c,
  0x7f, 0x03, 0x39, 0x3d, 0x17, 0xf6, 0x20, 0xbe, 0x46, 0xb3, 0x53, 0x3e,
  0x19, 0xb9, 0x98, 0xbe, 0xc4, 0x4e, 0x07, 0xbf, 0xfd, 0xc0, 0x82, 0x3e,
  0x60, 0x00, 0xc6, 0xbe, 0x51, 0x28, 0x84, 0x3e, 0x3a, 0x4a, 0x7a, 0x3d,
  0xab, 0x61, 0x0f, 0x3e, 0xa2, 0xf2, 0x21, 0xbf, 0x12, 0xa7, 0xb9, 0x3e,
  0x71, 0xa1, 0xd9, 0xbc, 0x47, 0x35, 0xd1, 0xbd, 0x93, 0x9f, 0x53, 0xbe,
  0xac, 0x63, 0xe1, 0xbd, 0x01, 0x33, 0xd2, 0x3e, 0xeb, 0x56, 0xa4, 0xbd,
  0x08, 0x91, 0xed, 0x3d, 0x71, 0x45, 0x69, 0xbe, 0x6c, 0x50, 0x92, 0xbe,
  0x16, 0xb7, 0x89, 0xbc, 0x55, 0x38, 0x9a, 0xbe, 0x22, 0xde, 0x17, 0x3f,
  0xc9, 0x23, 0x04, 0x3e, 0xb7, 0xfd, 0xe0, 0xbd, 0x50, 0xfe, 0x99, 0xbe,
  0x37, 0x04, 0x37, 0xbd, 0xc3, 0xb3, 0xf0, 0x3d, 0xc2, 0xc7, 0x16, 0x3e,
  0x4c, 0xb3, 0x9a, 0x3d, 0x5c, 0x88, 0xc7, 0x3c, 0x73, 0xe4, 0x9f, 0x3c,
  0xec, 0xae, 0x00, 0xbf, 0x29, 0xa9, 0xd4, 0xbd, 0x8b, 0xc9, 0xf5, 0x3d,
  0x44, 0xe5, 0x6a, 0x3c, 0x08, 0x57, 0xc7, 0x3d, 0x98, 0x83, 0x66, 0xbd,
  0x4d, 0x35, 0xea, 0x3d, 0x7a, 0xe1, 0x03, 0x3e, 0x91, 0x82, 0x9e, 0x3d,
  0x31, 0x08, 0xd1, 0x3c, 0xa6, 0x95, 0x2a, 0xbe, 0x92, 0xed, 0x19, 0xbe,
  0xe5, 0xda, 0x12, 0x3d, 0x95, 0x33, 0x0b, 0xbe, 0xe3, 0xde, 0x9b, 0xbd,
  0x72, 0x3c, 0x24, 0xbe, 0x49, 0x28, 0x1f, 0xbe, 0x0b, 0x3b, 0xec, 0xbe,
  0xc8, 0x7a, 0xf9, 0x3c, 0x55, 0xad, 0xdc, 0xbd, 0x95, 0x79, 0xdc, 0x3c,
  0x9e, 0xae, 0x3a, 0xbe, 0x10, 0x0f, 0x95, 0xbd, 0x5b, 0x97, 0x9f, 0xbd,
  0xde, 0x97, 0x0d, 0xbe, 0x10, 0x1e, 0x8b, 0xbd, 0x2b, 0xd1, 0x30, 0xbe,
  0x17, 0x61, 0x48, 0xbe, 0x38, 0x9e, 0x4f, 0x3c, 0xd0, 0x7e, 0x7f, 0x3d,
  0x82, 0x2e, 0xa6, 0xbe, 0x3b, 0xd8, 0x91, 0xbe, 0x02, 0x2c, 0x2c, 0xbe,
  0xe9, 0xe5, 0x0e, 0xbf, 0x23, 0x1e, 0xa9, 0xbd, 0xa4, 0x2c, 0x29, 0xbe,
  0x96, 0x0d, 0xa3, 0x3c, 0x00, 0xa6, 0x86, 0xbe, 0x6f, 0x20, 0x11, 0xbe,
  0x27, 0x9d, 0x47, 0x3c, 0x14, 0xf3, 0x5f, 0x3d, 0xf6, 0x13, 0xf0, 0xbd,
  0xe7, 0x25, 0xfe, 0xbd, 0xee, 0xfb, 0x96, 0xbe, 0x5b, 0x40, 0x75, 0xbe,
  0x92, 0x5a, 0x71, 0xbe, 0xc0, 0x8c, 0xcc, 0xbe, 0x0e, 0x04, 0x20, 0x3e,
  0xde, 0xb9, 0x10, 0x3c, 0x3d, 0xdc, 0x1a, 0xbf, 0x44, 0xbb, 0x67, 0x3d,
  0xbf, 0x84, 0x7b, 0xbe, 0x16, 0xfa, 0x24, 0xbe, 0x79, 0x9e, 0x8c, 0x3d,
  0xab, 0x71, 0x22, 0x3e, 0x96, 0xf1, 0x11, 0x3a, 0xe1, 0x15, 0xaa, 0x3e,
  0xb8, 0xf7, 0x83, 0xbe, 0x38, 0x46, 0x64, 0xbe, 0x26, 0x71, 0x9a, 0x3d,
  0x9f, 0xc4, 0x40, 0xbe, 0x70, 0x1c, 0x9a, 0xbe, 0x8b, 0xe8, 0x21, 0x3e,
  0x97, 0x09, 0x30, 0x3d, 0x69, 0x41, 0x53, 0x3d, 0x66, 0xcd, 0x22, 0x3e,
  0x7d, 0x90, 0xbd, 0x3e, 0xf5, 0x2f, 0x34, 0xbe, 0xd6, 0xfd, 0x3d, 0xbe,
  0xc3, 0x89, 0x9a, 0xbb, 0xf0, 0xf7, 0x54, 0xbe, 0x31, 0xdb, 0x06, 0xbd,
  0xf6, 0x29, 0x01, 0x3e, 0x66, 0x3a, 0xc9, 0xbe, 0x4f, 0x5a, 0x01, 0x3d,
  0x87, 0x40, 0x2b, 0x3e, 0x92, 0xe4, 0xc0, 0xbe, 0xd1, 0x03, 0x30, 0x3e,
  0x8f, 0x33, 0x36, 0x3e, 0x64, 0x32, 0x64, 0xbe, 0x58, 0xa2, 0xff, 0xbd,
  0x34, 0xff, 0x27, 0xbd, 0xf9, 0x3b, 0x29, 0x3d, 0x39, 0x8c, 0x1c, 0x3e,
  0x9d, 0xb8, 0x83, 0x3e, 0xdc, 0x0a, 0x50, 0x3c, 0x03, 0xfe, 0x4e, 0xbe,
  0xf9, 0x45, 0xf3, 0xbd, 0xbd, 0xc0, 0x19, 0x3e, 0xed, 0xfc, 0x5f, 0xbe,
  0xda, 0x09, 0x22, 0xbe, 0x17, 0x31, 0xa4, 0x3d, 0x7e, 0x3c, 0xfc, 0xbd,
  0x28, 0x92, 0x91, 0xbd, 0x5e, 0xd6, 0x83, 0x3d, 0x04, 0x1b, 0xaf, 0xbd,
  0xcf, 0x03, 0x94, 0x3b, 0x98, 0x57, 0xe1, 0xbc, 0x7f, 0x83, 0x31, 0x3e,
  0x6f, 0xab, 0x92, 0xbd, 0x20, 0xd3, 0xa0, 0xbd, 0x41, 0xe6, 0x81, 0x3d,
  0xc3, 0x07, 0x9f, 0xbd, 0x21, 0x18, 0xcc, 0x3d, 0xf3, 0x9d, 0x30, 0xbd,
  0x56, 0x3b, 0xa0, 0xbe, 0x1f, 0xa2, 0xee, 0xbd, 0xec, 0x13, 0xcb, 0x3d,
  0x48, 0x98, 0xa8, 0xbc, 0x2d, 0xc9, 0x05, 0xbe, 0xc2, 0xf7, 0x85, 0x3d,
  0x3c, 0x37, 0x19, 0x3b, 0x21, 0xfe, 0xf7, 0xbd, 0xc2, 0x83, 0x9b, 0xbe,
  0xf1, 0x5d, 0x89, 0x3e, 0x17, 0x8a, 0xb7, 0x3d, 0x4f, 0xfc, 0xfa, 0xbd,
  0x9a, 0xa8, 0xf4, 0x3d, 0x4f, 0x63, 0x37, 0xbd, 0xf7, 0x85, 0x96, 0x3d,
  0x5a, 0x53, 0xa4, 0xbe, 0xc7, 0x1b, 0xfc, 0xbe, 0x8f, 0x03, 0x66, 0xbe,
  0x1f, 0x25, 0x86, 0x3d, 0x87, 0xde, 0x1c, 0xbe, 0x32, 0x13, 0x2e, 0xbe,
  0xe3, 0x98, 0xb0, 0x3c, 0x26, 0x11, 0x27, 0x3d, 0x49, 0x1a, 0x80, 0xbe,
  0x4d, 0x28, 0xa5, 0xbd, 0x3b, 0x5d, 0x64, 0x3e, 0xa0, 0x0b, 0xbd, 0x3d,
  0x21, 0x96, 0xb8, 0xbd, 0x76, 0x09, 0xb8, 0x3d, 0x1d, 0x13, 0x5c, 0xbe,
  0xa0, 0xf3, 0x49, 0x3c, 0x78, 0xba, 0x88, 0xbe, 0x5b, 0x9f, 0xa2, 0xbe,
  0x6d, 0x12, 0x07, 0x3d, 0x46, 0x5e, 0xba, 0x3d, 0xd3, 0x77, 0x82, 0xbd,
  0xda, 0xd5, 0x45, 0x3c, 0x7b, 0x16, 0x7b, 0x3d, 0x95, 0x99, 0x84, 0xbd,
  0x49, 0xce, 0x38, 0xbe, 0xe6, 0x69, 0x2f, 0xbe, 0xc6, 0xcc, 0xfa, 0x3d,
  0xe2, 0xc6, 0x2d, 0x3c, 0xd3, 0x9e, 0x60, 0x3d, 0xa5, 0xbc, 0x0c, 0x3d,
  0x98, 0x34, 0x93, 0xbd, 0x05, 0xae, 0xf9, 0x3b, 0x82, 0x0d, 0xa2, 0xbe,
  0xb8, 0x4e, 0x8d, 0xbd, 0x4c, 0x0b, 0x78, 0xbc, 0x29, 0x72, 0x40, 0x3e,
  0x3c, 0x28, 0xae, 0xbd, 0x6f, 0x31, 0x3e, 0x3e, 0xea, 0x14, 0x89, 0x3d,
  0x24, 0x26, 0xbf, 0xbc, 0xdc, 0xc4, 0x1f, 0xbd, 0xcd, 0x6e, 0xc2, 0x3d,
  0x8b, 0x3f, 0x0d, 0x3e, 0x7a, 0xf2, 0x31, 0x3e, 0x73, 0x08, 0x75, 0x3d,
  0x4b, 0xdc, 0x98, 0x3c, 0x76, 0x0e, 0xc6, 0xbd, 0x9e, 0xf1, 0x70, 0xbd,
  0x91, 0xa3, 0xaa, 0xbe, 0x18, 0xfa, 0x38, 0x3d, 0x3f, 0xa4, 0x48, 0xbd,
  0xe5, 0x2a, 0x4a, 0x3e, 0xdb, 0xb6, 0xd5, 0x3c, 0xd5, 0xc9, 0xc2, 0xbd,
  0xe6, 0x45, 0xc7, 0xbd, 0x8e, 0xe8, 0x8a, 0x3d, 0x14, 0x9d, 0xc8, 0xbd,
  0xfd, 0xe5, 0x88, 0xbe, 0xcc, 0x86, 0x6a, 0x3e, 0x7c, 0x77, 0x38, 0xbd,
  0x73, 0xbe, 0xe9, 0xbd, 0x1e, 0x96, 0xb3, 0x3d, 0x07, 0x48, 0x29, 0xbe,
  0x23, 0x84, 0x4a, 0x3b, 0x76, 0xc3, 0x41, 0xbe, 0xe6, 0xf1, 0x0e, 0xbd,
  0xe2, 0x99, 0x86, 0xbd, 0x13, 0x9f, 0xe6, 0xbc, 0xc5, 0xa6, 0x64, 0xbd,
  0x7f, 0x48, 0xf4, 0xbd, 0xa4, 0x35, 0x55, 0xbd, 0x51, 0x48, 0x0e, 0x3d,
  0x49, 0xad, 0x75, 0xbd, 0xce, 0x08, 0x8b, 0x3c, 0x08, 0x32, 0x07, 0x3d,
  0x4f, 0xcf, 0x5a, 0xbc, 0xf2, 0x34, 0xef, 0xbd, 0xa2, 0x86, 0x8f, 0x3d,
  0xe4, 0x74, 0x9f, 0xbe, 0x92, 0xcd, 0xaf, 0x3d, 0xa6, 0xcc, 0xbb, 0xbd,
  0xc9, 0x3d, 0xff, 0x3d, 0x57, 0x30, 0xec, 0xbd, 0xdb, 0xaf, 0x58, 0x3e,
  0x9c, 0x04, 0x9f, 0xbd, 0x7d, 0xb7, 0xe2, 0x3d, 0x17, 0x7d, 0x1c, 0x3e,
  0x6a, 0xa9, 0xae, 0xbd, 0x7d, 0xf5, 0xc6, 0xbd, 0x48, 0x65, 0x9d, 0x3d,
  0xe7, 0x55, 0x3e, 0x3c, 0x59, 0x28, 0x6f, 0x3e, 0x80, 0xb3, 0x11, 0x3d,
  0x9f, 0x69, 0xf9, 0xbc, 0xfa, 0x72, 0x39, 0xbe, 0xcd, 0xc1, 0x89, 0xbd,
  0xe3, 0x89, 0x88, 0xbe, 0xda, 0x7c, 0x3b, 0x3e, 0x99, 0x8b, 0x15, 0xbe,
  0x05, 0xc6, 0x27, 0x3e, 0x4a, 0xa2, 0x7a, 0xbd, 0x5e, 0x41, 0x52, 0x3d,
  0xbe, 0xf5, 0x06, 0x3e, 0x50, 0x51, 0x90, 0x3c, 0xea, 0xfb, 0xe5, 0xbd,
  0xe1, 0x77, 0x87, 0xbe, 0x79, 0x34, 0xc7, 0x3d, 0xda, 0xb3, 0x64, 0x3e,
  0x35, 0xa0, 0xa0, 0x3d, 0x4a, 0x7e, 0xa1, 0x3c, 0xf7, 0xb2, 0x6d, 0xbe,
  0x74, 0xb2, 0x0d, 0x3e, 0xa8, 0xd6, 0xd2, 0xbe, 0x7c, 0x4b, 0xb4, 0x3e,
  0xe7, 0xf6, 0x0a, 0xbb, 0x05, 0xd5, 0x6d, 0x3e, 0x9a, 0xa0, 0x99, 0x3c,
  0xf7, 0x34, 0x0d, 0x3d, 0x8b, 0xe0, 0xc9, 0x3d, 0x4d, 0xf0, 0x3d, 0x3d,
  0x31, 0x29, 0x3f, 0xbe, 0xb1, 0xd3, 0x07, 0xbe, 0xee, 0xee, 0x6b, 0x3e,
  0x25, 0x9d, 0xaf, 0x3d, 0x92, 0x50, 0x04, 0xbe, 0x4d, 0x10, 0xc2, 0x3d,
  0x6b, 0x3a, 0x20, 0xbe, 0x99, 0x51, 0xc1, 0x3d, 0xd5, 0x47, 0xc3, 0xbe,
  0x71, 0x41, 0x2a, 0x3f, 0xb8, 0xb6, 0x12, 0xbe, 0x4e, 0xed, 0x0b, 0x3e,
  0xd5, 0xd1, 0x5f, 0x3d, 0x10, 0xfc, 0x00, 0xbd, 0x24, 0x9c, 0x97, 0x3d,
  0x43, 0x08, 0xbf, 0xbc, 0xa7, 0xe0, 0x32, 0xbe, 0x70, 0x65, 0xf7, 0x3c,
  0xdc, 0x5f, 0xa6, 0x3d, 0x5d, 0xc2, 0xdc, 0x3c, 0xf1, 0x4b, 0x84, 0x3d,
  0x85, 0xcf, 0x0b, 0x3d, 0xd9, 0xee, 0x25, 0xbe, 0xe3, 0x9f, 0x98, 0x3d,
  0x81, 0x3f, 0x8a, 0xbe, 0xfd, 0x26, 0x87, 0x3e, 0xdc, 0xe6, 0xaa, 0xbd,
  0xd4, 0x46, 0x13, 0x3e, 0x3c, 0x5e, 0x87, 0x3d, 0xb6, 0x89, 0x9e, 0xbd,
  0x58, 0x47, 0x0e, 0x3d, 0xec, 0xf3, 0xa1, 0x3d, 0x9e, 0x2a, 0x1e, 0x3d,
  0x59, 0x1b, 0x10, 0xbd, 0x1b, 0xf9, 0x0f, 0x3e, 0x95, 0xe2, 0xe7, 0x3d,
  0x5d, 0x37, 0xae, 0x3d, 0x06, 0x72, 0x47, 0x3d, 0x14, 0x4b, 0x08, 0xbe,
  0x0b, 0xfd, 0x90, 0x3d, 0x79, 0xcf, 0xfd, 0xbe, 0x8f, 0x81, 0xc9, 0x3e,
  0xa1, 0xbd, 0xb8, 0xbd, 0xc3, 0xef, 0x33, 0x3e, 0x08, 0x01, 0x02, 0x3d,
  0x17, 0x21, 0xbe, 0x3d, 0xca, 0xd5, 0x5b, 0x3e, 0xee, 0xf0, 0x35, 0xbd,
  0x4c, 0x44, 0xb9, 0x3c, 0xbe, 0x4e, 0x92, 0xbd, 0xc4, 0xe3, 0x1a, 0x3e,
  0x8e, 0x15, 0xad, 0x3d, 0x62, 0x99, 0x4f, 0xbd, 0xcb, 0x6d, 0xad, 0xbd,
  0x06, 0xf5, 0x5e, 0xbe, 0x76, 0xa9, 0xc6, 0x3d, 0xc5, 0x97, 0x53, 0xbe,
  0xa9, 0xe0, 0x16, 0x3f, 0xbe, 0x6b, 0xaa, 0xbd, 0x46, 0x9c, 0x29, 0x3e,
  0xc7, 0x2a, 0x6f, 0x3e, 0x39, 0xc2, 0x76, 0xbc, 0x3f, 0xc7, 0x03, 0x3e,
  0x40, 0x90, 0x94, 0x3d, 0xb1, 0x6c, 0x92, 0xbd, 0x23, 0x4e, 0x08, 0x3e,
  0x79, 0xab, 0x42, 0x3d, 0x8b, 0x92, 0x88, 0x3d, 0xa9, 0x6f, 0x10, 0x3e,
  0x3e, 0xfd, 0xf3, 0xbb, 0xec, 0xda, 0x03, 0xbd, 0xc9, 0x41, 0xea, 0x3d,
  0xfc, 0x50, 0x1c, 0x3e, 0xe8, 0x6e, 0xc3, 0x3e, 0x0f, 0x76, 0x2a, 0x3e,
  0x09, 0x48, 0x32, 0x3c, 0xa7, 0x9a, 0xe4, 0x3d, 0x18, 0xc0, 0x08, 0x3d,
  0x19, 0x43, 0x0a, 0x3e, 0xba, 0xd6, 0xfa, 0x3d, 0x8b, 0x48, 0x8c, 0xbd,
  0x68, 0xca, 0x8e, 0x3c, 0xa0, 0xa2, 0x36, 0x3d, 0xf2, 0x5e, 0x2c, 0x3d,
  0x77, 0x6b, 0x78, 0x3e, 0x95, 0x02, 0xb5, 0x3c, 0x55, 0xd2, 0xc5, 0x3d,
  0x46, 0x2f, 0x1b, 0x3e, 0xb8, 0x0b, 0x2e, 0xbe, 0x93, 0x7b, 0xa5, 0x3e,
  0x56, 0xa5, 0xaa, 0xbd, 0x4f, 0x4f, 0x76, 0x3e, 0x77, 0xce, 0xa6, 0xbb,
  0xf4, 0x62, 0x85, 0x3c, 0xea, 0xe7, 0xbb, 0x3d, 0x7a, 0x89, 0x70, 0x3e,
  0xd2, 0x3b, 0xac, 0xbd, 0x0f, 0x24, 0xfe, 0xbd, 0x11, 0x6c, 0x91, 0x3e,
  0x91, 0xd9, 0x8d, 0x3d, 0xf2, 0x19, 0xf3, 0x3d, 0xcc, 0x63, 0x8c, 0x3d,
  0xbf, 0x66, 0x9e, 0xbd, 0xc4, 0x03, 0x0b, 0x3e, 0xac, 0x55, 0x89, 0xbe,
  0xee, 0x8c, 0x8c, 0x3e, 0xb9, 0x4e, 0x25, 0xbe, 0x50, 0x95, 0x83, 0x3e,
  0x1c, 0xf6, 0x91, 0xbc, 0x82, 0x5d, 0x94, 0xbd, 0xe5, 0xa9, 0x15, 0x3d,
  0x3d, 0x2a, 0xdf, 0x3d, 0xa5, 0x3b, 0xd5, 0xbd, 0x12, 0xe9, 0x9e, 0xbe,
  0x70, 0x80, 0xa6, 0x3e, 0xfb, 0x74, 0x51, 0x3e, 0x21, 0x23, 0x46, 0xbd,
  0xab, 0x79, 0x03, 0x3d, 0x7c, 0xa5, 0x17, 0xbe, 0x08, 0x6e, 0x29, 0x3e,
  0x86, 0x40, 0x97, 0xbb, 0x97, 0xf1, 0xcc, 0x3d, 0x92, 0x42, 0x28, 0xbe,
  0xf4, 0x7c, 0x4f, 0x3e, 0xd5, 0x6c, 0xe1, 0x3d, 0xa5, 0xb9, 0x53, 0xbe,
  0x20, 0xdb, 0xa6, 0x3d, 0xfd, 0x3b, 0x12, 0x3e, 0x55, 0x1b, 0x1a, 0xbe,
  0x89, 0xc2, 0x4c, 0xbe, 0xf0, 0x8c, 0xc8, 0x3e, 0xf2, 0x73, 0x4c, 0x3e,
  0xdf, 0x14, 0x41, 0x3e, 0xd1, 0x7f, 0xc5, 0x3d, 0xd0, 0xa7, 0xc7, 0xbd,
  0xfe, 0x99, 0xe1, 0x3d, 0xa1, 0x66, 0x88, 0xbe, 0x6f, 0x6e, 0x8c, 0xbd,
  0x94, 0x83, 0x01, 0xbf, 0x63, 0xc5, 0xea, 0x3d, 0x70, 0x51, 0xb1, 0x3d,
  0x69, 0xfc, 0x66, 0xbe, 0xbb, 0xb4, 0xbb, 0xbc, 0x6e, 0x8f, 0x8b, 0x3c,
  0x98, 0x85, 0x21, 0xbe, 0xa8, 0x53, 0xf4, 0x3d, 0x86, 0xf2, 0x9a, 0x3e,
  0xfd, 0x92, 0x16, 0x3e, 0xe0, 0x7e, 0xc3, 0x3d, 0xb0, 0x5f, 0xee, 0x3d,
  0x28, 0x0d, 0xe5, 0xbe, 0x43, 0x95, 0x59, 0x3e, 0x74, 0x5f, 0xba, 0x3d,
  0xab, 0x6e, 0xe4, 0xbe, 0x8e, 0x23, 0x83, 0xbd, 0x49, 0x85, 0xd0, 0xbe,
  0x7c, 0xdf, 0x12, 0xbe, 0xaf, 0xc4, 0x07, 0xbe, 0xf3, 0x05, 0x0d, 0xbf,
  0x2e, 0xed, 0x70, 0x3d, 0x1b, 0x5e, 0xef, 0x3e, 0x29, 0xd5, 0xa1, 0x3e,
  0x17, 0xdb, 0x27, 0xbe, 0x4d, 0x69, 0x88, 0xbd, 0xa4, 0x76, 0x20, 0xbf,
  0xbc, 0x36, 0x5b, 0x3e, 0x71, 0x87, 0x20, 0x3e, 0x76, 0x1c, 0xd0, 0xbe,
  0x54, 0x07, 0xf1, 0x3e, 0xa9, 0xc9, 0x97, 0x3c, 0x1e, 0x14, 0x58, 0x3e,
  0x0b, 0xc0, 0x12, 0x3e, 0x35, 0x3a, 0x6a, 0x3e, 0x0b, 0xd2, 0x77, 0x3e,
  0x6b, 0xef, 0x07, 0xbd, 0x97, 0x52, 0x0e, 0x3e, 0xad, 0x12, 0x77, 0x3e,
  0x88, 0x22, 0xdd, 0x3e, 0x8c, 0x41, 0x6d, 0x3e, 0x03, 0x59, 0x8c, 0x3e,
  0xa0, 0x16, 0xf0, 0x3c, 0xf0, 0xfb, 0xc3, 0x3e, 0x3c, 0x9d, 0xdd, 0x3d,
  0x8d, 0x73, 0x75, 0xbc, 0xd1, 0x51, 0x1f, 0x3e, 0x55, 0xc8, 0x38, 0x3e,
  0x85, 0x2c, 0x34, 0x3e, 0x3b, 0x01, 0x03, 0x3e, 0x57, 0xd2, 0xbc, 0x3c,
  0x55, 0x03, 0x95, 0x3e, 0xc0, 0x66, 0x49, 0xbe, 0x75, 0xce, 0x5b, 0x3e,
  0xf6, 0xab, 0xc8, 0x3e, 0xa3, 0x6c, 0xed, 0x3d, 0x9c, 0x83, 0x4e, 0x3d,
  0xeb, 0x99, 0x21, 0x3e, 0x36, 0xa0, 0xc2, 0x3c, 0xfd, 0xe0, 0xc1, 0x3e,
  0x69, 0x27, 0xa1, 0x3d, 0x02, 0x1f, 0x0b, 0xbc, 0x16, 0x50, 0x99, 0x3e,
  0x6c, 0x3b, 0x9c, 0x3e, 0x5c, 0x25, 0x84, 0x3e, 0x6e, 0x08, 0xc7, 0xbc,
  0xf0, 0x67, 0xa7, 0x3e, 0xd8, 0x7a, 0x83, 0x3e, 0x1e, 0x95, 0x05, 0x3e,
  0xc7, 0x56, 0x60, 0x3e, 0x34, 0x48, 0x99, 0x3e, 0xdd, 0x06, 0xa2, 0x3e,
  0x75, 0xa8, 0x89, 0x3e, 0xd2, 0x47, 0x8f, 0x3e, 0x55, 0xf3, 0x34, 0xbc,
  0x96, 0x54, 0xc1, 0x3e, 0x59, 0x72, 0xac, 0x3d, 0x32, 0x71, 0x49, 0x3e,
  0x4e, 0x02, 0x7b, 0x3e, 0x63, 0x24, 0x5a, 0x3d, 0x8f, 0xc7, 0x4a, 0x3c,
  0x2c, 0xeb, 0x03, 0x3e, 0x64, 0x97, 0x4b, 0xbe, 0x5a, 0x20, 0x6e, 0x3e,
  0x80, 0xeb, 0x71, 0xbe, 0xea, 0x12, 0xd6, 0xbe, 0x39, 0x91, 0x73, 0x3d,
  0x93, 0xdb, 0x0f, 0xbe, 0xea, 0x57, 0x02, 0x3f, 0x53, 0x12, 0x84, 0x3e,
  0x9d, 0x71, 0xe2, 0x3d, 0x77, 0xe1, 0xe2, 0x3e, 0xbb, 0x37, 0x89, 0xbe,
  0x01, 0x11, 0xc3, 0xbe, 0x57, 0xe8, 0x9b, 0x3e, 0xc8, 0xab, 0xef, 0x3d,
  0x15, 0x51, 0xb9, 0xbe, 0xc4, 0x18, 0xfe, 0xbe, 0x0a, 0xec, 0x40, 0xbf,
  0xa9, 0x1f, 0xa6, 0x3e, 0xa6, 0x67, 0x0a, 0xbf, 0xdf, 0x3b, 0x3d, 0xbf,
  0xe8, 0x46, 0x13, 0x3e, 0x7b, 0x74, 0x02, 0xbf, 0xd2, 0x3f, 0xbe, 0x3c,
  0xef, 0x96, 0x37, 0x3e, 0x79, 0xeb, 0x2d, 0xbf, 0xba, 0xd2, 0x7b, 0x3e,
  0xa3, 0xf5, 0xb0, 0xbe, 0xb5, 0x56, 0x34, 0xbf, 0x12, 0x7c, 0x19, 0x3e,
  0x91, 0xa2, 0x73, 0x3e, 0x5c, 0x90, 0xad, 0xbe, 0x99, 0x4d, 0x01, 0xbf,
  0xea, 0x7c, 0xed, 0xbe, 0x4f, 0x7a, 0x76, 0x3c, 0x80, 0x36, 0x09, 0xbf,
  0x66, 0x7c, 0x2b, 0xbf, 0x99, 0x69, 0x6f, 0x3e, 0x3b, 0x15, 0x74, 0xbe,
  0x8b, 0x46, 0xb3, 0xbe, 0x23, 0x91, 0x75, 0x3c, 0xd6, 0xb7, 0xb5, 0xbe,
  0x5e, 0x75, 0x0a, 0x3e, 0xda, 0x2f, 0x9b, 0xbd, 0x4e, 0xf2, 0xd6, 0xbe,
  0xcd, 0xde, 0x5e, 0x3e, 0xde, 0xe4, 0xa0, 0x3e, 0xc2, 0xd6, 0x1d, 0xbe,
  0x04, 0x04, 0xc1, 0xbe, 0x53, 0x03, 0x97, 0xbe, 0xd3, 0xd5, 0x58, 0xba,
  0xc7, 0x71, 0xa2, 0xbe, 0xea, 0x11, 0x99, 0xbe, 0x06, 0x75, 0x33, 0x3e,
  0xcf, 0x7b, 0x1c, 0xbe, 0x5a, 0x59, 0x81, 0xbe, 0x74, 0x9b, 0x1b, 0xbe,
  0xf2, 0x26, 0xc9, 0xbe, 0xfb, 0x30, 0x13, 0x3e, 0xff, 0xc0, 0x16, 0xbe,
  0x79, 0x50, 0x8f, 0xbe, 0x62, 0x97, 0x47, 0x3e, 0x53, 0x36, 0xa6, 0x3e,
  0x9d, 0x0f, 0xe1, 0xbd, 0xa9, 0xef, 0xb9, 0xbe, 0x26, 0xce, 0xe4, 0xbd,
  0x22, 0x35, 0x09, 0xbd, 0xfc, 0xff, 0x79, 0xbe, 0x61, 0x46, 0xac, 0xbe,
  0x5b, 0x48, 0x3e, 0x3e, 0xb0, 0xae, 0x0d, 0x3d, 0x53, 0xeb, 0xa5, 0xbe,
  0x8b, 0x9f, 0x85, 0xbe, 0xdd, 0xf9, 0x73, 0xbe, 0x86, 0x6a, 0x30, 0x3e,
  0xcb, 0xe3, 0x36, 0xbe, 0xe2, 0x30, 0xca, 0xbe, 0x0b, 0xc7, 0x43, 0x3e,
  0xcc, 0xd9, 0xa5, 0x3e, 0x0f, 0xba, 0xb4, 0x3c, 0x06, 0xb7, 0xa1, 0xbe,
  0x7b, 0x33, 0x8d, 0xbe, 0xd3, 0xac, 0x5e, 0x3d, 0xb1, 0x5d, 0xdc, 0xbe,
  0x77, 0x65, 0xe0, 0xbe, 0x3f, 0x77, 0x5d, 0x3e, 0xd1, 0x00, 0xb9, 0xbd,
  0x6b, 0xed, 0x2a, 0xbe, 0x4d, 0xaf, 0x80, 0xbd, 0x68, 0x60, 0x50, 0xbe,
  0x0f, 0x8c, 0x04, 0x3e, 0x49, 0x48, 0x37, 0xbe, 0x42, 0x13, 0xde, 0xbe,
  0x7c, 0xa0, 0x68, 0x3e, 0x80, 0x16, 0x98, 0x3e, 0x3a, 0x01, 0x1d, 0xbe,
  0xbf, 0xa6, 0xb3, 0xbe, 0xba, 0x14, 0x67, 0xbe, 0xd7, 0x1e, 0x16, 0x3e,
  0x3a, 0xf1, 0x04, 0xbf, 0x91, 0x83, 0xe5, 0xbe, 0x64, 0x00, 0x72, 0x3e,
  0x8f, 0x6d, 0x0e, 0xbd, 0xd9, 0xad, 0xa6, 0xbe, 0xb6, 0xf4, 0xa3, 0xbd,
  0xcf, 0x2b, 0xfb, 0xbe, 0x5c, 0xd7, 0x97, 0x3d, 0x90, 0x8e, 0xee, 0xbd,
  0x30, 0x6b, 0xcf, 0xbe, 0xc6, 0xe5, 0xad, 0x3e, 0x52, 0x72, 0xa4, 0x3e,
  0xb2, 0x1d, 0xbc, 0xbb, 0x45, 0x38, 0x01, 0xbf, 0xd6, 0x38, 0x0a, 0xbf,
  0xd4, 0x19, 0xb6, 0x3c, 0x41, 0x83, 0xbf, 0xbe, 0xb5, 0xa0, 0xe6, 0xbe,
  0xe0, 0xe8, 0x81, 0x3e, 0x93, 0xcd, 0xe0, 0x3c, 0x5f, 0x83, 0x93, 0xbe,
  0x78, 0xf2, 0xb6, 0xbd, 0xfe, 0x7d, 0xac, 0xbe, 0x7d, 0xe2, 0xb1, 0x3c,
  0xb0, 0xa9, 0xa0, 0x3d, 0x32, 0xb6, 0xde, 0xbe, 0x82, 0xc9, 0xd9, 0x3d,
  0x35, 0xaf, 0xeb, 0x3e, 0xbf, 0x3e, 0x54, 0xbe, 0xba, 0x34, 0x12, 0xbf,
  0xe9, 0x3c, 0xab, 0xbd, 0x6f, 0xe9, 0x91, 0x3e, 0xb4, 0xfe, 0xd3, 0xbe,
  0xcc, 0xba, 0xd5, 0xbe, 0x95, 0x21, 0x90, 0x3e, 0xb9, 0xdd, 0xa4, 0x3d,
  0x4a, 0xec, 0xc3, 0xbe, 0xa8, 0x28, 0x49, 0xbd, 0x9a, 0x8c, 0x8d, 0xbe,
  0x3f, 0xce, 0x03, 0x3e, 0xce, 0xaf, 0xf9, 0x3d, 0xe5, 0x06, 0x2b, 0xbf,
  0x3f, 0xa6, 0x83, 0x3e, 0xba, 0xb7, 0x1d, 0x3f, 0x5c, 0xf1, 0x84, 0x3d,
  0xd8, 0x6f, 0x13, 0xbf, 0xf2, 0xb5, 0xfd, 0xbd, 0x7e, 0xd8, 0x81, 0x3d,
  0x14, 0xf9, 0x93, 0xbe, 0xaf, 0x3d, 0x42, 0xbe, 0xec, 0x82, 0x90, 0x3e,
  0x35, 0xb7, 0x0d, 0x3e, 0xb6, 0x09, 0xf7, 0xbe, 0x77, 0x20, 0x46, 0xbe,
  0x63, 0xe2, 0x8b, 0xbe, 0xc0, 0x63, 0xee, 0x3d, 0xb6, 0x01, 0x98, 0x3d,
  0x64, 0x30, 0xbc, 0xbe, 0x63, 0x40, 0xe0, 0x3c, 0x97, 0x5c, 0xbe, 0x3e,
  0x1b, 0x88, 0x6d, 0xbe, 0xb1, 0xd6, 0xa1, 0xbe, 0x0e, 0x77, 0x9b, 0xbe,
  0x14, 0x3d, 0x9f, 0x3d, 0x71, 0x97, 0xe1, 0xbe, 0xe5, 0xe1, 0xa7, 0xbe,
  0xd9, 0xe3, 0xda, 0x3e, 0x55, 0x10, 0x0c, 0xbe, 0x22, 0x3c, 0xef, 0xbd,
  0x87, 0x91, 0x5a, 0xbd, 0xf0, 0x0a, 0x82, 0xbe, 0x79, 0x6f, 0xce, 0x3d,
  0x07, 0xfc, 0x63, 0xbe, 0x45, 0x42, 0x75, 0xbe, 0x61, 0x56, 0xdb, 0x3d,
  0x14, 0x14, 0xa0, 0x3e, 0x9f, 0x46, 0x8f, 0xbe, 0x60, 0x79, 0xc7, 0xbe,
  0x57, 0xf6, 0xbc, 0xbe, 0x84, 0x9f, 0xad, 0x3d, 0x30, 0xd4, 0xe1, 0xbe,
  0x87, 0x67, 0x97, 0xbe, 0xa9, 0x02, 0xa4, 0x3e, 0xb3, 0xe1, 0xaa, 0xbe,
  0x2b, 0x32, 0x06, 0xbe, 0xc3, 0xc4, 0x16, 0xbe, 0x10, 0xd3, 0xb5, 0xbe,
  0xf9, 0x40, 0x1d, 0x3e, 0xcf, 0xef, 0xb2, 0xbe, 0xcd, 0x90, 0xb7, 0xbe,
  0x6c, 0x80, 0x29, 0x3d, 0xf4, 0x87, 0xd6, 0x3e, 0x61, 0xa1, 0xb9, 0xbe,
  0xda, 0x11, 0xd4, 0xbe, 0xea, 0xe3, 0x0b, 0xbf, 0x3f, 0x64, 0x73, 0x3e,
  0x9d, 0xcb, 0x1a, 0xbf, 0xde, 0xf2, 0xc7, 0xbe, 0xdc, 0x45, 0x6b, 0x3e,
  0xa5, 0x36, 0x8f, 0xbe, 0x13, 0x59, 0x14, 0xbe, 0x23, 0x5c, 0x51, 0xbd,
  0x7f, 0xcc, 0xd4, 0xbe, 0xeb, 0x71, 0x82, 0x3d, 0xb8, 0xec, 0x3b, 0xbe,
  0x71, 0xbd, 0x2d, 0xbf, 0x61, 0x31, 0xd1, 0x3c, 0x63, 0x80, 0x0b, 0x3f,
  0xb8, 0xb6, 0xaa, 0xbe, 0x01, 0xcc, 0x16, 0xbf, 0x27, 0xe7, 0xfb, 0xbe,
  0x6d, 0xf0, 0xb3, 0xbc, 0x0d, 0x12, 0x26, 0xbf, 0xf4, 0x09, 0x0b, 0xbf,
  0x9a, 0xe2, 0x88, 0x3e, 0xf1, 0x4c, 0x0a, 0xbe, 0x71, 0xb4, 0xc8, 0xbe,
  0x39, 0x60, 0x5a, 0xbe, 0xe1, 0xf8, 0x36, 0xbe, 0xce, 0x72, 0x20, 0x3d,
  0xdb, 0xc4, 0x6a, 0xbe, 0x2f, 0xc3, 0xe2, 0xbe, 0x51, 0x48, 0x80, 0xbb,
  0xdf, 0xfa, 0x0a, 0x3f, 0x95, 0xc9, 0xa8, 0xbe, 0x72, 0xf8, 0xeb, 0xbe,
  0x81, 0x30, 0x82, 0xbe, 0x9e, 0xe0, 0x30, 0xbb, 0x5f, 0xd4, 0xe7, 0xbe,
  0x3b, 0xf7, 0xcc, 0xbe, 0x4b, 0x5e, 0x6c, 0x3e, 0x9b, 0x31, 0xa7, 0xbe,
  0x2a, 0xe1, 0xba, 0xbe, 0xa4, 0x23, 0x33, 0xbd, 0x35, 0x6a, 0x6c, 0xbe,
  0x3e, 0x00, 0xe5, 0x3d, 0xf5, 0x62, 0x13, 0xbe, 0x9c, 0x9a, 0x6c, 0xbe,
  0x9f, 0x37, 0x2b, 0xbe, 0xb5, 0xfc, 0x12, 0x3f, 0xaf, 0x44, 0x40, 0xbe,
  0x83, 0x37, 0x12, 0xbf, 0xc2, 0xa1, 0xbf, 0xbe, 0xc7, 0xaf, 0x50, 0x3e,
  0xc8, 0x98, 0xd8, 0xbe, 0x28, 0xf4, 0xcf, 0xbe, 0x0d, 0x65, 0x99, 0x3e,
  0x3b, 0x76, 0xfa, 0xbd, 0xd0, 0x0f, 0x40, 0xbe, 0x5b, 0x5d, 0x9e, 0xbb,
  0xed, 0x66, 0xe0, 0xbe, 0x97, 0x3d, 0xf4, 0x3d, 0x38, 0xa5, 0xbf, 0xbd,
  0xb7, 0x20, 0xac, 0xbe, 0xd2, 0xc6, 0x12, 0x3d, 0x15, 0x16, 0xe0, 0x3e,
  0x14, 0x24, 0x9b, 0xbe, 0xb7, 0x5d, 0xd0, 0xbe, 0x0b, 0x43, 0xce, 0xbe,
  0x17, 0x58, 0x4a, 0x3e, 0x4d, 0x1c, 0x01, 0xbf, 0xbf, 0x5e, 0x00, 0xbf,
  0x2e, 0x99, 0xa7, 0x3e, 0xf5, 0xc0, 0x78, 0xbe, 0xac, 0x56, 0xb6, 0xbe,
  0x71, 0x84, 0xd0, 0xbd, 0x72, 0xbb, 0x8c, 0xbe, 0x8e, 0xcd, 0x91, 0x3d,
  0xb4, 0x7f, 0x45, 0xbe, 0x0a, 0x13, 0x06, 0xbf, 0x45, 0xa8, 0x66, 0xbc,
  0x0e, 0x0d, 0xf2, 0x3e, 0x52, 0x9b, 0xc7, 0xbe, 0x09, 0x86, 0xdc, 0xbe,
  0xfa, 0xdc, 0x27, 0xbe, 0x29, 0x00, 0x42, 0x3e, 0xa0, 0x1d, 0x2b, 0xbf,
  0x84, 0x24, 0x9c, 0xbe, 0x44, 0x04, 0xbb, 0x3e, 0xa5, 0xb8, 0x1d, 0xbe,
  0xf1, 0xa3, 0xce, 0xbd, 0x00, 0xa8, 0x06, 0x3e, 0x7d, 0x5d, 0x7c, 0xbe,
  0x92, 0x97, 0x34, 0x3e, 0xe5, 0x43, 0x53, 0xbe, 0xb4, 0x19, 0xa5, 0xbe,
  0xa8, 0x0a, 0xaa, 0x3d, 0x3c, 0x6f, 0xa7, 0x3e, 0xc7, 0x0d, 0xb4, 0xbe,
  0x30, 0x30, 0xbc, 0xbe, 0x73, 0x76, 0x8a, 0xbe, 0x90, 0xfb, 0x98, 0x3e,
  0x29, 0xfd, 0x1f, 0xbf, 0x0a, 0xc3, 0xc1, 0xbe, 0xd9, 0xe7, 0xc2, 0x3e,
  0x61, 0xbf, 0x8f, 0xbe, 0xc8, 0xf7, 0xf1, 0xbd, 0x25, 0xe1, 0xe1, 0x3d,
  0x49, 0xc4, 0x69, 0xbe, 0x60, 0x1a, 0x38, 0x3e, 0x31, 0x8e, 0x8e, 0xbe,
  0x43, 0xa6, 0xc7, 0xbe, 0x35, 0xb3, 0xeb, 0xbd, 0xce, 0x30, 0xaa, 0x3e,
  0xaf, 0x02, 0xa7, 0xbe, 0x03, 0x37, 0xbc, 0xbe, 0x05, 0xdc, 0x91, 0xbe,
  0x5e, 0x4a, 0x7e, 0x3e, 0x4c, 0x17, 0x02, 0xbf, 0x6a, 0x3c, 0xb1, 0xbe,
  0x1b, 0xb7, 0xb8, 0x3e, 0xb5, 0xc1, 0x59, 0xbd, 0xf2, 0xb7, 0x21, 0xbe,
  0x5a, 0x10, 0x17, 0x3e, 0xc0, 0x8e, 0x7c, 0xbe, 0xb7, 0x9a, 0x91, 0x3e,
  0xd5, 0xd0, 0x46, 0xbd, 0x7f, 0x91, 0xd6, 0xbe, 0x26, 0x6d, 0xd5, 0x3d,
  0x26, 0x42, 0x9d, 0x3e, 0x7b, 0xad, 0xaa, 0xbe, 0x45, 0x4b, 0xd8, 0xbe,
  0x64, 0x21, 0x94, 0xbe, 0xf4, 0x25, 0xd2, 0x3d, 0xcf, 0x34, 0x9d, 0xbe,
  0xa4, 0xc7, 0xea, 0xbd, 0x92, 0x2a, 0x19, 0x3f, 0x4e, 0x4f, 0xfd, 0xbd,
  0x8e, 0x55, 0x41, 0xbe, 0x12, 0x39, 0x1f, 0xbc, 0x29, 0x9d, 0x08, 0xbf,
  0x4e, 0x4b, 0x9f, 0x3e, 0x9f, 0xbf, 0xb0, 0xbd, 0x21, 0x41, 0xbb, 0xbe,
  0x9b, 0x96, 0x11, 0xbd, 0x79, 0x85, 0x22, 0x3f, 0xc6, 0x24, 0x89, 0xbe,
  0x17, 0x12, 0x46, 0xbe, 0x65, 0x81, 0x4a, 0xbe, 0xf0, 0x4e, 0xfb, 0xbd,
  0x05, 0xba, 0x90, 0xbe, 0x75, 0x41, 0x04, 0x3e, 0x72, 0xda, 0x91, 0x3e,
  0x42, 0x39, 0x27, 0xbe, 0x11, 0xa7, 0x40, 0xbe, 0xb5, 0x1c, 0x04, 0x3c,
  0xff, 0x50, 0x2f, 0xbe, 0x2c, 0xa9, 0xa1, 0xbd, 0x53, 0xf3, 0xcd, 0x3d,
  0x92, 0xd0, 0x2c, 0xbe, 0xa0, 0xc3, 0xb1, 0x3c, 0xa7, 0xc5, 0xea, 0xbc,
  0xdb, 0x93, 0xcd, 0xbd, 0xe2, 0x4b, 0xfe, 0x3d, 0xc0, 0xda, 0x9e, 0x3d,
  0x2d, 0x4f, 0xa7, 0x3d, 0xd4, 0xd4, 0x0c, 0x3e, 0x0e, 0x78, 0x83, 0x3d,
  0xf8, 0x7d, 0xd7, 0x3d, 0xfd, 0x8b, 0xfe, 0xbd, 0x5c, 0x5f, 0x70, 0x3d,
  0x8c, 0x06, 0x71, 0x3e, 0x0b, 0xd5, 0x1b, 0x3e, 0x12, 0xd4, 0xf1, 0x3d,
  0x2a, 0xca, 0x81, 0x3c, 0xd3, 0x0d, 0x7f, 0x3e, 0x25, 0xf4, 0xf5, 0x3d,
  0x02, 0x4c, 0xd9, 0xb9, 0xf0, 0xc2, 0xc8, 0xbd, 0x48, 0xbb, 0x89, 0x3e,
  0x7d, 0xa6, 0x05, 0xbe, 0x25, 0xc6, 0xbd, 0xbc, 0x28, 0xe5, 0xc2, 0x3e,
  0xf9, 0xb1, 0x88, 0x3d, 0xf9, 0xed, 0x9f, 0x3e, 0x61, 0xab, 0x39, 0x3e,
  0x9a, 0x18, 0x04, 0x3e, 0xbf, 0x0d, 0xe2, 0x3d, 0x7b, 0x46, 0xd8, 0x3d,
  0x7a, 0xa7, 0x15, 0x3e, 0x41, 0x5b, 0x77, 0x3d, 0x4a, 0x0d, 0x92, 0x3d,
  0x20, 0xec, 0x4f, 0xbd, 0x11, 0x73, 0x3b, 0x3e, 0xb4, 0xd9, 0x57, 0xbe,
  0x5f, 0x85, 0x18, 0x3e, 0xd1, 0x35, 0x19, 0xbe, 0x9b, 0x4d, 0x70, 0x3e,
  0x66, 0x60, 0xcf, 0x3d, 0xb9, 0x9d, 0x92, 0xbe, 0x94, 0xe3, 0x3e, 0x3e,
  0x01, 0xbe, 0xd4, 0x3d, 0xea, 0xab, 0x8b, 0x3d, 0xba, 0x86, 0x58, 0x3e,
  0xb2, 0x2d, 0x7f, 0x3c, 0xec, 0xc0, 0xa9, 0x3d, 0x8a, 0x73, 0x33, 0xbd,
  0xb7, 0x67, 0x0e, 0xbe, 0xfa, 0x36, 0x45, 0xbd, 0x3a, 0x32, 0xc0, 0x3d,
  0xd5, 0xcf, 0xf1, 0xbd, 0x13, 0x8d, 0xc8, 0x3d, 0xd3, 0xda, 0x2b, 0x3e,
  0x40, 0xe9, 0xaa, 0x3e, 0xd4, 0x78, 0x42, 0xbe, 0x42, 0x81, 0x38, 0x3c,
  0x3b, 0xba, 0xb6, 0x3d, 0x25, 0xe7, 0x33, 0xbe, 0x99, 0x58, 0x20, 0xbd,
  0x57, 0x1c, 0x0d, 0x3e, 0x51, 0x17, 0x06, 0xbe, 0x9f, 0x39, 0x5f, 0x3d,
  0xcd, 0x0a, 0x99, 0xbd, 0x3b, 0x13, 0x09, 0xbe, 0xfa, 0x58, 0x66, 0xbe,
  0xc5, 0xe2, 0x8d, 0x3e, 0x05, 0xa5, 0x50, 0xbd, 0x47, 0x46, 0x09, 0xbe,
  0xe0, 0x72, 0x61, 0x3e, 0x4f, 0x5e, 0x83, 0xbe, 0x52, 0x9f, 0x0e, 0xbe,
  0xf9, 0xeb, 0x40, 0x3e, 0x83, 0x7c, 0x49, 0x3e, 0x69, 0xef, 0x89, 0xbd,
  0x73, 0xea, 0x8d, 0xbe, 0x5f, 0xb9, 0xa2, 0xbd, 0xfb, 0x4b, 0x6a, 0xbe,
  0x66, 0xf5, 0x8f, 0x3d, 0xc7, 0x07, 0x80, 0x3d, 0x63, 0xb5, 0x27, 0x3e,
  0xf2, 0xca, 0x2e, 0xbe, 0xea, 0x82, 0x89, 0x3e, 0x5a, 0x18, 0x94, 0xbe,
  0x57, 0x5b, 0x59, 0x3d, 0x87, 0x30, 0xfd, 0x3d, 0xd2, 0x4d, 0x70, 0xbd,
  0xf7, 0xfb, 0x3f, 0xbe, 0x3e, 0x37, 0x7d, 0x3e, 0xb8, 0xb1, 0x0f, 0x3e,
  0xcc, 0xb0, 0x41, 0xbe, 0x63, 0xe1, 0x57, 0x3e, 0x35, 0x8d, 0x0c, 0xbd,
  0xf0, 0x4b, 0x6d, 0xbe, 0x1f, 0x80, 0xde, 0x3d, 0x80, 0x9e, 0x45, 0xbc,
  0xc4, 0xff, 0xd0, 0x3d, 0xde, 0x91, 0x93, 0xbe, 0xaa, 0xf9, 0x25, 0x3e,
  0x3e, 0x9b, 0x57, 0x3d, 0x13, 0x4c, 0x1f, 0x3c, 0xce, 0xbb, 0x57, 0xbe,
  0x6d, 0x25, 0x03, 0x3e, 0xd7, 0x68, 0xc2, 0x3d, 0x7a, 0x38, 0x15, 0xbe,
  0x8f, 0x42, 0xde, 0x3d, 0x37, 0xed, 0x52, 0x3d, 0x4e, 0xfe, 0xfa, 0xbd,
  0x79, 0x96, 0xb1, 0x3d, 0xa8, 0x22, 0x65, 0x3d, 0xf6, 0x5b, 0x8d, 0x3d,
  0x2c, 0x3d, 0xa4, 0xbe, 0x91, 0x4e, 0x66, 0xbe, 0x5c, 0x99, 0xa5, 0xbd,
  0x2a, 0x39, 0xba, 0x3e, 0xb8, 0x30, 0x0b, 0xbe, 0x17, 0x1d, 0xde, 0xbd,
  0xf7, 0x47, 0x11, 0x3c, 0x8b, 0x84, 0xcf, 0x3c, 0xab, 0x47, 0x27, 0xbe,
  0xb9, 0x10, 0xb8, 0xbd, 0x02, 0x3d, 0x19, 0x3e, 0x4b, 0x41, 0xcc, 0x3d,
  0x28, 0xb2, 0x26, 0xbe, 0xa0, 0x7e, 0x35, 0x3d, 0x92, 0x72, 0x91, 0xbe,
  0xa0, 0x5a, 0xda, 0x3d, 0xc1, 0x2f, 0x06, 0xbd, 0xcf, 0x54, 0xb2, 0x3d,
  0x21, 0x03, 0xe2, 0xbd, 0x51, 0x7f, 0xe5, 0x3e, 0xe5, 0x6d, 0xe4, 0xbb,
  0xe2, 0x52, 0x9f, 0xbd, 0x31, 0xfd, 0x36, 0xbd, 0x48, 0x2c, 0x9c, 0x3e,
  0x8b, 0xc2, 0xde, 0xbd, 0x03, 0xeb, 0x13, 0x3e, 0xa2, 0x16, 0x41, 0x3d,
  0xe7, 0xc6, 0xc2, 0x3d, 0x18, 0xe4, 0x7e, 0x3d, 0x59, 0x0a, 0xd7, 0xbd,
  0x8d, 0x54, 0x42, 0xbd, 0x4d, 0xa9, 0x24, 0x3e, 0x4c, 0x7a, 0x77, 0x3d,
  0xaf, 0x81, 0xbb, 0x3c, 0xdb, 0x01, 0x45, 0x3e, 0x71, 0x76, 0x97, 0xbd,
  0xe5, 0x30, 0xe4, 0x3c, 0xba, 0xa0, 0x97, 0xbd, 0xd3, 0x32, 0xbc, 0xbd,
  0x5d, 0x77, 0xd2, 0x3c, 0x41, 0x12, 0xd9, 0xbd, 0xca, 0x35, 0x9e, 0x3d,
  0xf1, 0x6a, 0xc7, 0x3d, 0x54, 0x54, 0x64, 0xbe, 0x39, 0x04, 0x0f, 0x3d,
  0xb4, 0xa6, 0x65, 0x3c, 0x51, 0x57, 0x92, 0x3d, 0x7c, 0xe3, 0x82, 0x3d,
  0xf2, 0x81, 0x0e, 0xbb, 0xe8, 0x5d, 0x13, 0x3e, 0x17, 0xc4, 0x84, 0x3d,
  0x41, 0xad, 0xb2, 0x3d, 0x2a, 0xf4, 0x0d, 0xbc, 0x1e, 0x6c, 0xd3, 0xbd,
  0x68, 0x16, 0x35, 0x3c, 0xdc, 0x69, 0x18, 0xbe, 0x23, 0x51, 0x38, 0xbe,
  0x76, 0xb7, 0xba, 0x3d, 0x6c, 0xd6, 0x06, 0x3e, 0xcd, 0x6a, 0x47, 0xbb,
  0x60, 0x1e, 0x7c, 0x3d, 0xf2, 0xe5, 0x01, 0x3e, 0x9e, 0xb3, 0x1a, 0xbe,
  0x1b, 0x7c, 0x35, 0x3d, 0xed, 0x1e, 0x03, 0xbe, 0x6f, 0xf9, 0x18, 0x3d,
  0xad, 0x47, 0xc1, 0x3c, 0xe9, 0xdd, 0xa4, 0xbe, 0xa5, 0x27, 0xd5, 0xbd,
  0xe1, 0xae, 0x41, 0x3e, 0x16, 0x94, 0x9f, 0xbe, 0x69, 0x0a, 0x9b, 0x3e,
  0x6b, 0xc1, 0x19, 0xbd, 0xc4, 0xb4, 0x0d, 0xbe, 0x32, 0x54, 0x93, 0x3d,
  0xe7, 0xc4, 0x57, 0xbe, 0x88, 0xd6, 0x40, 0x3e, 0xff, 0x8d, 0xb5, 0x3d,
  0x7b, 0x0c, 0x4b, 0xbe, 0xfe, 0xe9, 0xab, 0x3d, 0x28, 0x44, 0xc7, 0xbe,
  0xa9, 0x72, 0xb1, 0xbc, 0xca, 0x78, 0x32, 0xbe, 0xcc, 0x50, 0xc1, 0xbe,
  0xaa, 0xdc, 0xd2, 0xbe, 0xb6, 0x5c, 0x87, 0xbd, 0x5a, 0x39, 0xf1, 0xbd,
  0xaf, 0x17, 0x44, 0x3e, 0xbc, 0xee, 0xab, 0xbe, 0xc3, 0x13, 0xb3, 0xbe,
  0x04, 0x31, 0x0a, 0x3e, 0x6a, 0x9e, 0x12, 0xbf, 0x71, 0xac, 0x32, 0xbb,
  0x41, 0x17, 0x0b, 0x3e, 0xf9, 0x03, 0xf0, 0xbe, 0xcb, 0x7d, 0x56, 0x3e,
  0x71, 0xfd, 0xfd, 0xbe, 0x68, 0x6c, 0x34, 0xbe, 0x01, 0xd4, 0x53, 0xbb,
  0xe7, 0x18, 0xad, 0xbe, 0x04, 0x1a, 0x8a, 0xbe, 0xc6, 0x0c, 0xec, 0xbd,
  0xe7, 0x8a, 0x0c, 0xbe, 0x98, 0x69, 0xfd, 0x3d, 0x85, 0xd5, 0x80, 0xbe,
  0x9e, 0xda, 0x63, 0xbe, 0x73, 0x05, 0x48, 0x3e, 0x72, 0xb0, 0x4a, 0xbe,
  0x2a, 0xb8, 0xa5, 0xbd, 0x86, 0x56, 0x58, 0x3e, 0xf3, 0x4f, 0xdc, 0xbe,
  0x97, 0xc1, 0x12, 0x3e, 0x6b, 0xf6, 0xd9, 0xbe, 0x96, 0xde, 0xb1, 0xbe,
  0x8a, 0x9c, 0xa1, 0x3d, 0x99, 0xec, 0xc6, 0xbd, 0xd9, 0xe9, 0x83, 0xbe,
  0x86, 0xed, 0x7b, 0xbd, 0xbd, 0x5c, 0x9d, 0xbe, 0xd8, 0xe4, 0x32, 0x3e,
  0x4e, 0xac, 0x74, 0xbe, 0x73, 0xdd, 0x92, 0xbe, 0x0d, 0xe4, 0x94, 0x3e,
  0x10, 0x4e, 0xe4, 0xbd, 0x50, 0xaa, 0x83, 0x3d, 0xf4, 0x4c, 0x36, 0x3e,
  0x16, 0xb8, 0xa7, 0xbe, 0xf7, 0xec, 0x3c, 0x3e, 0x13, 0xce, 0x81, 0xbe,
  0x25, 0xfb, 0xc3, 0xba, 0xc4, 0x2f, 0xfc, 0x3d, 0x9f, 0x3f, 0x3e, 0xbf,
  0xd6, 0xa6, 0x8e, 0xbe, 0xb2, 0xf3, 0xc3, 0xbd, 0x18, 0xa9, 0xce, 0x3d,
  0x61, 0x42, 0x52, 0x3d, 0x44, 0x96, 0xbf, 0xbd, 0x4f, 0x43, 0x65, 0xbb,
  0xf1, 0x30, 0x32, 0x3e, 0x1f, 0x94, 0x74, 0xbd, 0x03, 0x73, 0xe5, 0x3c,
  0xc5, 0x8d, 0x76, 0x3e, 0xeb, 0x1e, 0xc5, 0xbd, 0x8f, 0x76, 0x04, 0x3e,
  0x5c, 0x55, 0xe6, 0xbd, 0x7c, 0x17, 0x6d, 0x3d, 0x94, 0x36, 0x86, 0x3c,
  0xc8, 0x1c, 0x14, 0xbf, 0xd9, 0x7e, 0xf9, 0xbd, 0xc4, 0x06, 0xd5, 0xbc,
  0x6e, 0xbf, 0x4a, 0xbd, 0x85, 0x3d, 0xf1, 0x3d, 0x80, 0x91, 0x39, 0xbd,
  0xeb, 0x87, 0x61, 0xbe, 0x45, 0x63, 0xca, 0x3d, 0x68, 0x49, 0x83, 0xbe,
  0xa3, 0xc3, 0x05, 0x3e, 0x75, 0xfd, 0x31, 0x3e, 0xea, 0x40, 0xa6, 0x3d,
  0xaf, 0x62, 0xf5, 0x3d, 0xee, 0x18, 0xb6, 0xbe, 0xfe, 0xd8, 0xa4, 0xbe,
  0x34, 0xb1, 0x94, 0x3e, 0x32, 0xd9, 0x19, 0xbf, 0x06, 0x38, 0x5b, 0xbe,
  0xcc, 0xe3, 0x0d, 0xbd, 0x30, 0x61, 0xfc, 0xbe, 0x86, 0x58, 0xd4, 0x3e,
  0xfa, 0x1f, 0xdd, 0xbe, 0xf3, 0x24, 0xde, 0xbe, 0x5d, 0x55, 0x67, 0x3e,
  0x6c, 0x00, 0x83, 0xbe, 0x84, 0x0c, 0x60, 0x3b, 0x52, 0x04, 0x33, 0x3d,
  0xa7, 0x96, 0xd0, 0xbe, 0x80, 0x4e, 0x2b, 0x3e, 0x6c, 0x03, 0x0e, 0xbe,
  0x6a, 0x61, 0xce, 0xbe, 0x50, 0x69, 0x8d, 0x3c, 0xe5, 0x34, 0x40, 0xbe,
  0x8f, 0x17, 0xa7, 0xbe, 0xb0, 0xa9, 0x65, 0xbd, 0x1f, 0x25, 0xf1, 0xbe,
  0x10, 0xf7, 0x3b, 0x3e, 0xc5, 0x2d, 0x99, 0xbe, 0x84, 0xe9, 0x9d, 0xbe,
  0xce, 0x08, 0x8a, 0x3e, 0x80, 0xf6, 0x05, 0xbe, 0x25, 0x2f, 0x8a, 0x3d,
  0xa0, 0x76, 0x42, 0x3e, 0xf6, 0xa7, 0x83, 0xbe, 0xb5, 0x86, 0x61, 0x3e,
  0x9a, 0x05, 0xb3, 0xbe, 0x1d, 0xa7, 0x0b, 0xbe, 0x58, 0x4c, 0x3a, 0xbd,
  0x84, 0x59, 0x73, 0xbe, 0xf0, 0x41, 0x7c, 0xbe, 0x2c, 0x74, 0x12, 0xbd,
  0x5c, 0xc6, 0x4d, 0xbe, 0xe4, 0x20, 0x22, 0x3e, 0xbf, 0x07, 0x2d, 0xbe,
  0xd9, 0xfb, 0x90, 0xbe, 0x10, 0xb5, 0x47, 0x3e, 0xed, 0xa8, 0x0f, 0xbe,
  0x59, 0x4d, 0xb4, 0x3d, 0x11, 0xe5, 0xe8, 0x3d, 0x7d, 0xac, 0xa8, 0xbe,
  0x9e, 0xf1, 0x0d, 0x3e, 0xdc, 0x5c, 0x57, 0xbe, 0xb4, 0x26, 0xd9, 0xbd,
  0x67, 0x28, 0xb5, 0xbc, 0xfe, 0x5e, 0x5d, 0xbe, 0xa5, 0xab, 0xc5, 0xbe,
  0x1b, 0xa2, 0x84, 0xbd, 0x12, 0x4c, 0x52, 0xbe, 0x50, 0xed, 0xba, 0x3e,
  0xd9, 0xb1, 0xa1, 0xbd, 0xc8, 0xb8, 0xfb, 0xbd, 0x99, 0x08, 0xda, 0x3d,
  0x8e, 0x8b, 0x7f, 0xbe, 0x25, 0x93, 0x05, 0x3e, 0x03, 0x4f, 0x88, 0x3e,
  0x2c, 0x35, 0x34, 0xbe, 0xec, 0xff, 0xe8, 0x3d, 0xd6, 0x87, 0xb1, 0xbe,
  0x0c, 0xdb, 0xb2, 0xbe, 0xb6, 0xc6, 0xa7, 0xbd, 0x98, 0xef, 0x90, 0x3c,
  0x09, 0x87, 0x43, 0xbe, 0xa3, 0x35, 0x03, 0x3e, 0x02, 0x08, 0x7d, 0xbe,
  0x51, 0x85, 0xba, 0x3e, 0xe7, 0xb5, 0xff, 0x3c, 0x39, 0x4b, 0x85, 0xbe,
  0xd9, 0xcb, 0xd6, 0x3d, 0x49, 0x40, 0x27, 0xbc, 0x77, 0xc5, 0xfe, 0x3c,
  0x26, 0x96, 0xa1, 0x3d, 0xdc, 0xc6, 0x52, 0x3d, 0x2e, 0xbb, 0xc4, 0x3d,
  0xe0, 0x0a, 0xef, 0xbd, 0x7c, 0x8a, 0x97, 0xbd, 0x89, 0x4b, 0xb3, 0xbd,
  0x71, 0x12, 0x58, 0x3e, 0x50, 0xbf, 0xcd, 0xbe, 0x79, 0x8f, 0xa0, 0xbd,
  0xfb, 0x6d, 0xda, 0xbe, 0xd4, 0xb1, 0xe0, 0x3d, 0x63, 0x6e, 0x22, 0xbd,
  0xc7, 0x4d, 0x41, 0xbe, 0xab, 0xb9, 0x97, 0x3e, 0x15, 0x13, 0x81, 0xbe,
  0x99, 0xcb, 0x39, 0x3e, 0x55, 0xf2, 0x0e, 0x3e, 0x87, 0x8a, 0x4d, 0xbe,
  0x92, 0xd6, 0x64, 0x3d, 0xdd, 0xd5, 0x0a, 0xbf, 0x36, 0x95, 0xce, 0xbc,
  0x5d, 0xbc, 0xb9, 0xbe, 0x6c, 0x04, 0x97, 0x3e, 0xdf, 0x2d, 0xb5, 0xbe,
  0xa2, 0x05, 0xce, 0x3d, 0xa9, 0x1e, 0x8c, 0x3d, 0xc6, 0x39, 0xd9, 0x3d,
  0x6a, 0x7e, 0x8f, 0x3d, 0x6f, 0x3b, 0x60, 0xbc, 0xd5, 0x6c, 0x3a, 0x3c,
  0xb5, 0x21, 0x51, 0xbe, 0x4e, 0x1d, 0x7c, 0x3d, 0x01, 0xd2, 0xe9, 0x3d,
  0x7b, 0xcd, 0x00, 0xbe, 0x2a, 0xf8, 0x00, 0x3e, 0x86, 0x58, 0xb1, 0xbd,
  0x5a, 0x4e, 0x2f, 0xbe, 0xe8, 0x27, 0x88, 0xbd, 0x45, 0x1f, 0x21, 0x3e,
  0x1c, 0x4b, 0xc2, 0xbd, 0x38, 0x22, 0x4d, 0xbe, 0xca, 0xf0, 0xf9, 0x3d,
  0xea, 0xda, 0xa1, 0xbd, 0xda, 0x97, 0x21, 0xbe, 0xdf, 0xe0, 0x41, 0xbe,
  0xd9, 0x6d, 0x26, 0x3e, 0xf5, 0x83, 0x48, 0x3d, 0xc7, 0x7a, 0xb2, 0x3c,
  0x76, 0x17, 0xad, 0xbb, 0x90, 0x0d, 0x4e, 0xbd, 0x81, 0x54, 0x50, 0x3d,
  0x09, 0xcd, 0x7c, 0xbd, 0xfa, 0x1a, 0x7e, 0xbd, 0x84, 0xc1, 0x01, 0x3e,
  0x1b, 0xe5, 0x69, 0x3d, 0xf8, 0x64, 0xf6, 0xbd, 0x07, 0xfe, 0xc4, 0xbe,
  0x77, 0x5e, 0xcd, 0xbe, 0x17, 0x27, 0x7d, 0x3c, 0x8e, 0xb4, 0x85, 0x3e,
  0x9d, 0xc6, 0x95, 0xbe, 0x05, 0xac, 0x36, 0xbd, 0x6d, 0x75, 0xb9, 0x3e,
  0xee, 0xcb, 0x2b, 0xbe, 0xad, 0x45, 0xfe, 0xbc, 0xc9, 0x22, 0x5c, 0xbe,
  0x64, 0x14, 0x73, 0xbe, 0xdb, 0x1e, 0x6a, 0xbd, 0x1c, 0x1a, 0xb7, 0xbe,
  0x08, 0xb0, 0x3c, 0x3d, 0x8d, 0x42, 0x88, 0x3d, 0xdc, 0x10, 0xbc, 0xbe,
  0xf0, 0x3f, 0xe0, 0xb9, 0xbf, 0xf7, 0xee, 0xbe, 0x5c, 0xde, 0xdc, 0x3d,
  0x16, 0xb9, 0x1a, 0x3f, 0xd6, 0x0e, 0xdd, 0xbe, 0xd2, 0x5d, 0x40, 0x3d,
  0xea, 0x26, 0xc7, 0x3e, 0xe3, 0x74, 0x71, 0xbf, 0x56, 0x44, 0x76, 0xbc,
  0x03, 0x17, 0xc8, 0x3d, 0xd2, 0x71, 0x60, 0xbe, 0x9b, 0x8f, 0x24, 0xbe,
  0x38, 0x81, 0x48, 0xbf, 0x6c, 0x49, 0x4d, 0xbf, 0xbd, 0xec, 0xb8, 0x3e,
  0x27, 0x79, 0x14, 0xbf, 0x7e, 0x6a, 0xca, 0xbe, 0xee, 0x68, 0xf7, 0xbe,
  0x20, 0xcb, 0xc4, 0x3d, 0x18, 0x1d, 0x1b, 0xbe, 0xf2, 0x9e, 0x8f, 0xbe,
  0xc3, 0x31, 0xce, 0x3d, 0x9c, 0xb2, 0xcf, 0xbe, 0x37, 0x42, 0x68, 0xbf,
  0x4c, 0x18, 0x00, 0xbb, 0xa6, 0x1a, 0xcf, 0xbe, 0x83, 0x8b, 0x7f, 0xbe,
  0x76, 0x5f, 0xdc, 0xbe, 0x45, 0xb7, 0xb3, 0xbe, 0xf8, 0x07, 0xa7, 0xbf,
  0xe3, 0x6a, 0xaf, 0x3e, 0xc1, 0x91, 0x6e, 0xbe, 0x15, 0x7e, 0xec, 0xbd,
  0x9d, 0x14, 0x61, 0x3d, 0x09, 0xd7, 0x50, 0xbd, 0xba, 0x35, 0xa5, 0xbd,
  0xec, 0x77, 0x3b, 0x3d, 0x2c, 0x07, 0xc6, 0x3d, 0x1c, 0x30, 0x4b, 0x3e,
  0x15, 0xfc, 0xe2, 0xbe, 0x46, 0x75, 0x10, 0xbe, 0x6e, 0xff, 0x21, 0x3e,
  0xbc, 0xce, 0x06, 0x3b, 0x2e, 0x79, 0x88, 0x3d, 0x91, 0x34, 0xf6, 0x3d,
  0xda, 0xa0, 0xb6, 0xbd, 0x06, 0xbe, 0x55, 0x3e, 0xa5, 0x82, 0x9b, 0xbd,
  0x1f, 0xd1, 0xc2, 0xbc, 0xd5, 0x93, 0x35, 0xbe, 0xae, 0x65, 0xb8, 0x3b,
  0xd6, 0x42, 0x23, 0x3e, 0x98, 0x0b, 0x2a, 0x3d, 0x18, 0xbe, 0x26, 0x3e,
  0x4d, 0x5c, 0xec, 0x3d, 0xa0, 0x07, 0x84, 0x3c, 0x71, 0x35, 0xd4, 0x3d,
  0x92, 0x2c, 0x22, 0x3e, 0x00, 0x5b, 0xf9, 0xbd, 0x1c, 0x9b, 0x23, 0xbd,
  0xfc, 0x23, 0x79, 0x3d, 0xbb, 0x40, 0x8c, 0xbe, 0x98, 0xe3, 0x01, 0x3e,
  0xd8, 0x3d, 0x9c, 0x3d, 0x57, 0xa0, 0x57, 0x3d, 0x9f, 0x76, 0x2b, 0xbe,
  0x51, 0xbb, 0x6c, 0x3e, 0x46, 0x35, 0x76, 0x3b, 0xd7, 0xcc, 0x17, 0xbe,
  0xf3, 0x7d, 0xc8, 0x3d, 0x4e, 0x38, 0x85, 0x3d, 0xc0, 0x48, 0x25, 0xbe,
  0xad, 0xb7, 0xd8, 0x3d, 0x6e, 0x6d, 0x00, 0x3e, 0xc1, 0x52, 0x22, 0xbd,
  0x3e, 0xcc, 0x99, 0x3c, 0xaa, 0x6f, 0x02, 0xbd, 0xe7, 0x77, 0x3a, 0xbe,
  0xab, 0xbe, 0x84, 0x3e, 0x0e, 0xba, 0x35, 0x3e, 0x0a, 0x55, 0x88, 0x3d,
  0xcd, 0xc9, 0xfb, 0x3c, 0x9a, 0x96, 0xc2, 0x3d, 0x24, 0x8e, 0x18, 0x3e,
  0xab, 0xcd, 0x8a, 0xbd, 0xff, 0x45, 0x81, 0x3e, 0xa9, 0x07, 0x13, 0x3e,
  0xf9, 0xcc, 0x84, 0xbd, 0x36, 0x4b, 0xd1, 0x3d, 0x09, 0xd6, 0x0a, 0x3e,
  0xeb, 0x24, 0x99, 0xbc, 0xe6, 0x86, 0xdc, 0x3d, 0x58, 0xf4, 0x8d, 0x3e,
  0x16, 0x32, 0xc3, 0x3c, 0xd4, 0x71, 0xdb, 0x3d, 0x44, 0x61, 0xf3, 0x3c,
  0xe2, 0x2f, 0x7f, 0x3c, 0x56, 0xcd, 0x8b, 0x3d, 0x00, 0x66, 0x44, 0x3e,
  0xe2, 0xb0, 0x49, 0x3c, 0xc8, 0x03, 0x3a, 0x3d, 0x84, 0x93, 0x3f, 0x3e,
  0x68, 0x0f, 0x82, 0x3e, 0xe8, 0x7b, 0x66, 0x3c, 0xc4, 0x20, 0x54, 0xbd,
  0xef, 0x72, 0xb8, 0x3c, 0x4a, 0xa2, 0xb0, 0xbc, 0x60, 0x99, 0x1f, 0x3e,
  0x4b, 0x39, 0x19, 0xbe, 0x6f, 0xf6, 0x2a, 0x3e, 0x59, 0x5e, 0xcb, 0x3d,
  0xe9, 0x9f, 0xec, 0x3d, 0x0c, 0xd9, 0x2f, 0x3d, 0xbf, 0x56, 0x26, 0x3d,
  0x5e, 0x07, 0x90, 0xbd, 0x92, 0xff, 0x24, 0x3d, 0x75, 0xb3, 0xae, 0x3c,
  0xa0, 0xab, 0x7f, 0x3e, 0x75, 0x4b, 0xfd, 0xbc, 0xc9, 0xdc, 0x93, 0xbe,
  0xa9, 0x4d, 0xe4, 0x3c, 0x15, 0xd1, 0x1f, 0x3d, 0xa7, 0xce, 0x16, 0xbd,
  0x09, 0x52, 0x4e, 0x3e, 0x4c, 0x08, 0xe6, 0x3d, 0x25, 0xe6, 0xa1, 0xbd,
  0x3b, 0x81, 0x21, 0xbe, 0xbb, 0x77, 0xed, 0x3c, 0x73, 0xf4, 0xdf, 0xbd,
  0x61, 0x74, 0x26, 0x3e, 0x80, 0xf7, 0x45, 0x38, 0xa3, 0x0d, 0x83, 0xbc,
  0x4a, 0x68, 0x13, 0x3d, 0x51, 0xfe, 0x90, 0xbe, 0x4b, 0x1c, 0x23, 0xbd,
  0x74, 0x1f, 0xcc, 0xbd, 0xae, 0x91, 0x14, 0x3c, 0x82, 0xb3, 0x1b, 0xbc,
  0xb3, 0xf2, 0xd7, 0xb9, 0x5a, 0x3b, 0xb9, 0xbd, 0xff, 0x22, 0xfe, 0x3c,
  0xbf, 0xef, 0x9e, 0x3e, 0xef, 0xf6, 0x02, 0xbf, 0x7f, 0x43, 0xbe, 0x3d,
  0xe7, 0xcc, 0xba, 0xbd, 0x7a, 0xf8, 0x63, 0xbd, 0x71, 0x07, 0x91, 0x3e,
  0x5b, 0x83, 0x4c, 0x3e, 0xc1, 0xe4, 0x92, 0xbc, 0xde, 0xec, 0xa7, 0xbe,
  0xb0, 0x53, 0xff, 0x3d, 0x1e, 0xb7, 0x70, 0xbe, 0xbf, 0x87, 0x8c, 0x3c,
  0x9f, 0x5b, 0x0b, 0x3e, 0x42, 0xe8, 0x2a, 0xbd, 0xca, 0x96, 0xa8, 0x3a,
  0x4b, 0x29, 0x1e, 0xbe, 0x92, 0xee, 0xcc, 0x3c, 0x77, 0x8d, 0x29, 0x3e,
  0x8f, 0xaf, 0x4d, 0x3d, 0x21, 0x2e, 0x1e, 0xbe, 0xd1, 0x6e, 0x1f, 0xbd,
  0x5e, 0x19, 0xd8, 0xbd, 0x97, 0x15, 0x9c, 0xbd, 0xd5, 0x66, 0x05, 0xbc,
  0x2b, 0x02, 0x04, 0x3e, 0x8d, 0x34, 0xc2, 0x3d, 0x26, 0xa7, 0x00, 0xbe,
  0xd9, 0xed, 0x72, 0xbe, 0xd4, 0x91, 0xa1, 0x3d, 0x18, 0xd6, 0x99, 0x3c,
  0x79, 0xfc, 0xb8, 0x3d, 0xcb, 0x15, 0xfb, 0x3d, 0xe9, 0x86, 0x91, 0x3d,
  0xf9, 0x63, 0x4f, 0xbd, 0x0b, 0xcc, 0xf7, 0x3c, 0x7f, 0x10, 0x68, 0xbd,
  0xaf, 0xa5, 0x8f, 0x3d, 0x80, 0xe3, 0x41, 0xbe, 0xc0, 0x24, 0x20, 0xbe,
  0x9d, 0x10, 0x6b, 0x3d, 0xc3, 0x06, 0x29, 0xbe, 0xa2, 0x9e, 0xcb, 0x3c,
  0x75, 0x2d, 0x12, 0xbd, 0x8a, 0x56, 0x6e, 0xbe, 0xcf, 0x9d, 0x36, 0xbd,
  0xfc, 0x53, 0xac, 0xbd, 0x01, 0x8e, 0xc4, 0x3c, 0x32, 0x6f, 0x07, 0xbd,
  0xa2, 0xc8, 0x93, 0x3e, 0xa4, 0xa2, 0xa0, 0xbe, 0xd8, 0xee, 0xbe, 0x3d,
  0x24, 0x49, 0xce, 0xbd, 0xba, 0x01, 0x13, 0xbd, 0x0c, 0xe1, 0x84, 0xbe,
  0x49, 0xde, 0x2c, 0xbe, 0x6e, 0x09, 0xd9, 0x3d, 0x6f, 0xa1, 0xc8, 0xbd,
  0x7e, 0xfa, 0xeb, 0xbb, 0x7f, 0x72, 0xa1, 0xbe, 0x76, 0x30, 0xd8, 0xbe,
  0x51, 0xac, 0xab, 0xbc, 0xef, 0xf9, 0x15, 0xbe, 0x13, 0xd4, 0x2e, 0x3e,
  0xe5, 0xba, 0x9b, 0x3d, 0x7f, 0x5d, 0x0c, 0x3e, 0xd3, 0x6f, 0x2a, 0xbf,
  0x33, 0x71, 0xa6, 0x3d, 0x47, 0x1c, 0xd2, 0xbb, 0x24, 0xfc, 0x44, 0x3e,
  0x7f, 0xa6, 0xd0, 0xbe, 0xf4, 0x6d, 0xc1, 0x3c, 0x95, 0xe4, 0x79, 0x3d,
  0x3d, 0x7c, 0xb3, 0xbc, 0xc7, 0xc3, 0x45, 0x3e, 0xde, 0x49, 0x0e, 0xbe,
  0x18, 0x36, 0xb5, 0xbe, 0xd1, 0x54, 0xf6, 0x3b, 0x08, 0x06, 0x83, 0xbd,
  0x14, 0x11, 0xd0, 0x3d, 0xe6, 0xad, 0x10, 0x3e, 0x54, 0x71, 0x9e, 0x3e,
  0xc3, 0xf1, 0x52, 0xbf, 0xff, 0xb7, 0xff, 0x3c, 0x11, 0x27, 0x25, 0x3d,
  0x8a, 0x1d, 0xad, 0xbd, 0x0f, 0x26, 0x2f, 0xbe, 0x91, 0x45, 0xee, 0xbd,
  0x19, 0x17, 0xbe, 0x3d, 0x64, 0xe6, 0x2f, 0xbd, 0xad, 0x6e, 0xfb, 0xbd,
  0x5b, 0xf5, 0xac, 0xbd, 0x34, 0x11, 0x3b, 0xbd, 0x18, 0xf1, 0x23, 0xbe,
  0xa1, 0x0f, 0xc3, 0xbd, 0xcc, 0x6c, 0x10, 0x3e, 0x29, 0xe5, 0xd5, 0x3d,
  0x63, 0xb4, 0xae, 0xbd, 0x3b, 0x73, 0x20, 0xbf, 0x95, 0x9d, 0x93, 0x3c,
  0x0a, 0x75, 0xe8, 0x3c, 0x9e, 0x17, 0xa2, 0x3d, 0xbc, 0x3d, 0x69, 0x3a,
  0xf1, 0x84, 0x33, 0x3d, 0xca, 0x60, 0x97, 0x3d, 0x73, 0xe0, 0x13, 0xbe,
  0xfd, 0x94, 0x14, 0xbd, 0xe0, 0xf5, 0x58, 0x3d, 0x1c, 0xc2, 0xc4, 0x3b,
  0x97, 0xa3, 0x4b, 0x3c, 0x8d, 0xef, 0x2c, 0x3e, 0x1a, 0xa1, 0xfd, 0xbd,
  0x2f, 0x48, 0xc0, 0xbb, 0x3c, 0x23, 0xde, 0x3d, 0xfa, 0x58, 0x3a, 0xbf,
  0xfe, 0xaf, 0x3f, 0x3d, 0x59, 0x2c, 0x78, 0x3d, 0x56, 0xa0, 0xa0, 0xbc,
  0x3d, 0xd5, 0xd7, 0xbd, 0xaf, 0x45, 0x81, 0xbd, 0xf7, 0x8c, 0x88, 0x3d,
  0x91, 0x1a, 0x27, 0xbe, 0xb2, 0x69, 0x05, 0xbe, 0x33, 0xd3, 0x39, 0x3e,
  0x7f, 0xba, 0x5a, 0xbd, 0x51, 0xb0, 0xda, 0xbd, 0x48, 0x5e, 0xfd, 0x3d,
  0x1f, 0x67, 0x6c, 0xbc, 0xbc, 0x2c, 0x27, 0x3d, 0x84, 0xe2, 0xab, 0x3d,
  0xc7, 0x5e, 0x44, 0xbf, 0x45, 0x26, 0xc6, 0xbd, 0x4b, 0xb8, 0xa7, 0x3d,
  0x24, 0xee, 0x04, 0xbd, 0xeb, 0xbc, 0x02, 0xbe, 0x5b, 0x40, 0x1e, 0x3d,
  0x46, 0x8f, 0xe8, 0xbb, 0x89, 0x63, 0x7a, 0xbd, 0x66, 0x5d, 0x06, 0xbe,
  0x82, 0x06, 0xe6, 0x3d, 0xb6, 0xca, 0xe1, 0x3d, 0x9c, 0x22, 0x0a, 0xbc,
  0x8a, 0xb1, 0xe0, 0x3d, 0x27, 0xf7, 0x37, 0x3d, 0xe1, 0x30, 0xd8, 0x3d,
  0x75, 0x94, 0xf9, 0x3d, 0xcc, 0x0d, 0x4e, 0xbf, 0xfc, 0xf1, 0xdb, 0xbd,
  0x18, 0x40, 0x92, 0xbd, 0x24, 0x0f, 0xa6, 0xbd, 0x97, 0xf7, 0x1b, 0xbe,
  0xea, 0x42, 0xeb, 0xbd, 0xca, 0x31, 0x56, 0xbd, 0x46, 0x13, 0x84, 0xbe,
  0xb2, 0xe0, 0x63, 0xbe, 0x01, 0x7f, 0x1c, 0x3e, 0xff, 0x2a, 0x27, 0x3e,
  0xcd, 0xba, 0x97, 0xbe, 0xef, 0x43, 0x43, 0x3e, 0x53, 0x5d, 0x8a, 0xbd,
  0x6e, 0xbe, 0x13, 0xbe, 0x82, 0xe6, 0x0c, 0x3e, 0x47, 0x3b, 0x5f, 0xbf,
  0xe5, 0xf7, 0x1c, 0xbd, 0x51, 0x74, 0x08, 0xbd, 0xf9, 0x3e, 0x95, 0xbd,
  0x77, 0xef, 0x62, 0xbe, 0xb7, 0x20, 0xe4, 0xbd, 0xca, 0xe5, 0xc3, 0xbd,
  0x61, 0x5a, 0x9c, 0xbd, 0x4b, 0xf3, 0x36, 0x3d, 0x0f, 0xf1, 0x87, 0xbc,
  0xd5, 0x0f, 0xa3, 0xbb, 0x05, 0x7d, 0x6c, 0xbe, 0xc3, 0x97, 0x3b, 0x3d,
  0xca, 0x36, 0x31, 0xbe, 0x40, 0xc5, 0xfb, 0xbd, 0xc5, 0xb2, 0x03, 0x3e,
  0xd8, 0x1f, 0x43, 0xbf, 0xc8, 0xa2, 0x1b, 0x3d, 0x6d, 0xf4, 0x03, 0xbe,
  0x71, 0x98, 0xb8, 0xbc, 0x10, 0xdb, 0x18, 0xbe, 0x78, 0x21, 0x2c, 0xbe,
  0xe4, 0x90, 0x87, 0xbd, 0xee, 0xa3, 0x07, 0xbe, 0x70, 0xf4, 0x29, 0x3e,
  0x81, 0x82, 0x37, 0xbe, 0x74, 0x86, 0x42, 0xbe, 0x89, 0x46, 0x03, 0xbe,
  0xe8, 0x6d, 0x0b, 0xbe, 0x94, 0x50, 0x5d, 0x3c, 0x18, 0xcb, 0x04, 0xbe,
  0xf0, 0x0d, 0xa3, 0x3d, 0xa8, 0xdd, 0x2c, 0xbf, 0x23, 0x9f, 0x43, 0xbc,
  0x71, 0x3f, 0x29, 0xbe, 0xc5, 0x7e, 0x9c, 0xbd, 0xc0, 0x2b, 0x98, 0xbc,
  0xc6, 0x14, 0x75, 0xbd, 0x06, 0xd7, 0x14, 0xbe, 0x78, 0x99, 0xa6, 0x3c,
  0x68, 0xbf, 0xbe, 0xbc, 0x3b, 0xf7, 0x25, 0xbe, 0x92, 0x19, 0xd0, 0xbd,
  0x0d, 0x47, 0x06, 0xbe, 0x6b, 0x19, 0x81, 0xbd, 0x28, 0xd1, 0x07, 0xbe,
  0x28, 0x29, 0x18, 0xbe, 0xb3, 0x3f, 0x33, 0x3d, 0x9c, 0x15, 0x26, 0xbd,
  0x2e, 0x6b, 0x33, 0x3c, 0x98, 0x17, 0xca, 0xbd, 0x02, 0x3c, 0x86, 0x3c,
  0x88, 0xdd, 0xfc, 0xbb, 0xc6, 0x27, 0xe2, 0xbd, 0x28, 0xfc, 0xb8, 0xbe,
  0x38, 0x6a, 0xb1, 0xbe, 0x44, 0x5d, 0x24, 0xbe, 0xc8, 0x80, 0xad, 0xbe,
  0x60, 0x13, 0xe6, 0xbb, 0xfb, 0xa0, 0xd4, 0xbd, 0xbc, 0xc5, 0xd9, 0x3c,
  0x79, 0x35, 0x64, 0xbe, 0x04, 0x8c, 0x9e, 0xbe, 0xd8, 0x67, 0x0e, 0x3e,
  0x95, 0xcb, 0x79, 0x3e, 0x3e, 0xfb, 0xff, 0xff, 0x04, 0x00, 0x00, 0x00,
  0x04, 0x00, 0x00, 0x00, 0xfd, 0xff, 0xff, 0xff, 0x4e, 0xfb, 0xff, 0xff,
  0x04, 0x00, 0x00, 0x00, 0x08, 0x00, 0x00, 0x00, 0xff, 0xff, 0xff, 0xff,
  0x90, 0x01, 0x00, 0x00, 0x62, 0xfb, 0xff, 0xff, 0x04, 0x00, 0x00, 0x00,
  0x04, 0x00, 0x00, 0x00, 0x02, 0x00, 0x00, 0x00, 0x72, 0xfb, 0xff, 0xff,
  0x04, 0x00, 0x00, 0x00, 0x04, 0x00, 0x00, 0x00, 0x62, 0x00, 0x00, 0x00,
  0x82, 0xfb, 0xff, 0xff, 0x04, 0x00, 0x00, 0x00, 0x04, 0x00, 0x00, 0x00,
  0x29, 0x00, 0x00, 0x00, 0x92, 0xfb, 0xff, 0xff, 0x04, 0x00, 0x00, 0x00,
  0x04, 0x00, 0x00, 0x00, 0x00, 0x00, 0x00, 0x00, 0xa2, 0xfb, 0xff, 0xff,
  0x04, 0x00, 0x00, 0x00, 0x04, 0x00, 0x00, 0x00, 0x01, 0x00, 0x00, 0x00,
  0xb2, 0xfb, 0xff, 0xff, 0x04, 0x00, 0x00, 0x00, 0x20, 0x00, 0x00, 0x00,
  0x2e, 0x07, 0xfe, 0xbe, 0x1a, 0x7c, 0xe6, 0xbd, 0x34, 0x7b, 0x0b, 0x3f,
  0x72, 0x2f, 0xad, 0x3d, 0x3f, 0xc3, 0x30, 0xbd, 0xc4, 0xf8, 0x9a, 0xbe,
  0x26, 0x65, 0xec, 0x3e, 0x59, 0x24, 0x5d, 0x3e, 0xde, 0xfb, 0xff, 0xff,
  0x04, 0x00, 0x00, 0x00, 0x40, 0x00, 0x00, 0x00, 0xc3, 0x7a, 0x22, 0xbc,
  0x87, 0xb1, 0x9c, 0xbe, 0xb8, 0xcb, 0x3f, 0xbe, 0x0b, 0x41, 0xd3, 0x3d,
  0x5c, 0x8e, 0x92, 0xbe, 0x49, 0xd2, 0x52, 0xbe, 0x2b, 0x0c, 0xc5, 0x3e,
  0x60, 0x7e, 0x34, 0x3e, 0x96, 0xb3, 0x4d, 0xbe, 0xa6, 0x4a, 0xd2, 0xbd,
  0x9a, 0xff, 0x79, 0xbe, 0xcd, 0xe1, 0x5f, 0x3e, 0x55, 0x43, 0xe3, 0xbd,
  0x71, 0xa5, 0x03, 0xbe, 0x8f, 0x9c, 0x6f, 0x3e, 0x6b, 0x40, 0xe4, 0x3e,
  0x2a, 0xfc, 0xff, 0xff, 0x04, 0x00, 0x00, 0x00, 0x14, 0x00, 0x00, 0x00,
  0x2b, 0xd4, 0x59, 0xbe, 0xed, 0x02, 0x61, 0xbe, 0x93, 0xe3, 0x8c, 0x3e,
  0x99, 0x91, 0xbb, 0x3d, 0x9d, 0x06, 0xa0, 0x3d, 0x64, 0xed, 0xff, 0xff,
  0x68, 0xed, 0xff, 0xff, 0x0f, 0x00, 0x00, 0x00, 0x4d, 0x4c, 0x49, 0x52,
  0x20, 0x43, 0x6f, 0x6e, 0x76, 0x65, 0x72, 0x74, 0x65, 0x64, 0x2e, 0x00,
  0x01, 0x00, 0x00, 0x00, 0x14, 0x00, 0x00, 0x00, 0x00, 0x00, 0x0e, 0x00,
  0x18, 0x00, 0x14, 0x00, 0x10, 0x00, 0x0c, 0x00, 0x08, 0x00, 0x04, 0x00,
  0x0e, 0x00, 0x00, 0x00, 0x14, 0x00, 0x00, 0x00, 0x1c, 0x00, 0x00, 0x00,
  0x3c, 0x04, 0x00, 0x00, 0x40, 0x04, 0x00, 0x00, 0x44, 0x04, 0x00, 0x00,
  0x04, 0x00, 0x00, 0x00, 0x6d, 0x61, 0x69, 0x6e, 0x00, 0x00, 0x00, 0x00,
  0x12, 0x00, 0x00, 0x00, 0xec, 0x03, 0x00, 0x00, 0x8c, 0x03, 0x00, 0x00,
  0x38, 0x03, 0x00, 0x00, 0x10, 0x03, 0x00, 0x00, 0xd0, 0x02, 0x00, 0x00,
  0x80, 0x02, 0x00, 0x00, 0x58, 0x02, 0x00, 0x00, 0x24, 0x02, 0x00, 0x00,
  0xd4, 0x01, 0x00, 0x00, 0xac, 0x01, 0x00, 0x00, 0x78, 0x01, 0x00, 0x00,
  0x34, 0x01, 0x00, 0x00, 0x0c, 0x01, 0x00, 0x00, 0xd8, 0x00, 0x00, 0x00,
  0x98, 0x00, 0x00, 0x00, 0x70, 0x00, 0x00, 0x00, 0x38, 0x00, 0x00, 0x00,
  0x04, 0x00, 0x00, 0x00, 0xc6, 0xfc, 0xff, 0xff, 0x14, 0x00, 0x00, 0x00,
  0x00, 0x00, 0x00, 0x09, 0x14, 0x00, 0x00, 0x00, 0x18, 0x00, 0x00, 0x00,
  0x08, 0x00, 0x00, 0x00, 0x06, 0xfd, 0xff, 0xff, 0x00, 0x00, 0x80, 0x3f,
  0x01, 0x00, 0x00, 0x00, 0x22, 0x00, 0x00, 0x00, 0x01, 0x00, 0x00, 0x00,
  0x21, 0x00, 0x00, 0x00, 0xf6, 0xfc, 0xff, 0xff, 0x14, 0x00, 0x00, 0x00,
  0x00, 0x00, 0x00, 0x08, 0x10, 0x00, 0x00, 0x00, 0x14, 0x00, 0x00, 0x00,
  0x07, 0x00, 0x00, 0x00, 0x50, 0xee, 0xff, 0xff, 0x01, 0x00, 0x00, 0x00,
  0x21, 0x00, 0x00, 0x00, 0x03, 0x00, 0x00, 0x00, 0x20, 0x00, 0x00, 0x00,
  0x0b, 0x00, 0x00, 0x00, 0x01, 0x00, 0x00, 0x00, 0x9a, 0xfd, 0xff, 0xff,
  0x0c, 0x00, 0x00, 0x00, 0x10, 0x00, 0x00, 0x00, 0x03, 0x00, 0x00, 0x00,
  0x01, 0x00, 0x00, 0x00, 0x20, 0x00, 0x00, 0x00, 0x02, 0x00, 0x00, 0x00,
  0x1f, 0x00, 0x00, 0x00, 0x09, 0x00, 0x00, 0x00, 0x4e, 0xfd, 0xff, 0xff,
  0x14, 0x00, 0x00, 0x00, 0x00, 0x00, 0x00, 0x05, 0x20, 0x00, 0x00, 0x00,
  0x24, 0x00, 0x00, 0x00, 0x06, 0x00, 0x00, 0x00, 0xda, 0xfe, 0xff, 0xff,
  0x02, 0x00, 0x00, 0x00, 0x01, 0x00, 0x00, 0x00, 0x02, 0x00, 0x00, 0x00,
  0x01, 0x00, 0x00, 0x00, 0x01, 0x00, 0x00, 0x00, 0x1f, 0x00, 0x00, 0x00,
  0x01, 0x00, 0x00, 0x00, 0x1e, 0x00, 0x00, 0x00, 0x8a, 0xfd, 0xff, 0xff,
  0x14, 0x00, 0x00, 0x00, 0x00, 0x00, 0x00, 0x34, 0x10, 0x00, 0x00, 0x00,
  0x14, 0x00, 0x00, 0x00, 0x04, 0x00, 0x00, 0x00, 0xe4, 0xee, 0xff, 0xff,
  0x01, 0x00, 0x00, 0x00, 0x1e, 0x00, 0x00, 0x00, 0x02, 0x00, 0x00, 0x00,
  0x1d, 0x00, 0x00, 0x00, 0x08, 0x00, 0x00, 0x00, 0x2a, 0xfe, 0xff, 0xff,
  0x0c, 0x00, 0x00, 0x00, 0x10, 0x00, 0x00, 0x00, 0x03, 0x00, 0x00, 0x00,
  0x01, 0x00, 0x00, 0x00, 0x1d, 0x00, 0x00, 0x00, 0x02, 0x00, 0x00, 0x00,
  0x1c, 0x00, 0x00, 0x00, 0x10, 0x00, 0x00, 0x00, 0xde, 0xfd, 0xff, 0xff,
  0x14, 0x00, 0x00, 0x00, 0x00, 0x00, 0x00, 0x01, 0x1c, 0x00, 0x00, 0x00,
  0x20, 0x00, 0x00, 0x00, 0x05, 0x00, 0x00, 0x00, 0xcc, 0xfe, 0xff, 0xff,
  0x00, 0x00, 0x00, 0x01, 0x01, 0x00, 0x00, 0x00, 0x01, 0x00, 0x00, 0x00,
  0x01, 0x00, 0x00, 0x00, 0x1c, 0x00, 0x00, 0x00, 0x03, 0x00, 0x00, 0x00,
  0x1b, 0x00, 0x00, 0x00, 0x0d, 0x00, 0x00, 0x00, 0x02, 0x00, 0x00, 0x00,
  0x1e, 0xfe, 0xff, 0xff, 0x14, 0x00, 0x00, 0x00, 0x00, 0x00, 0x00, 0x34,
  0x10, 0x00, 0x00, 0x00, 0x14, 0x00, 0x00, 0x00, 0x04, 0x00, 0x00, 0x00,
  0x78, 0xef, 0xff, 0xff, 0x01, 0x00, 0x00, 0x00, 0x1b, 0x00, 0x00, 0x00,
  0x02, 0x00, 0x00, 0x00, 0x1a, 0x00, 0x00, 0x00, 0x0a, 0x00, 0x00, 0x00,
  0xbe, 0xfe, 0xff, 0xff, 0x0c, 0x00, 0x00, 0x00, 0x10, 0x00, 0x00, 0x00,
  0x03, 0x00, 0x00, 0x00, 0x01, 0x00, 0x00, 0x00, 0x1a, 0x00, 0x00, 0x00,
  0x02, 0x00, 0x00, 0x00, 0x19, 0x00, 0x00, 0x00, 0x0f, 0x00, 0x00, 0x00,
  0x72, 0xfe, 0xff, 0xff, 0x24, 0x00, 0x00, 0x00, 0x00, 0x00, 0x00, 0x05,
  0x30, 0x00, 0x00, 0x00, 0x34, 0x00, 0x00, 0x00, 0x06, 0x00, 0x00, 0x00,
  0x00, 0x00, 0x0e, 0x00, 0x14, 0x00, 0x00, 0x00, 0x10, 0x00, 0x0c, 0x00,
  0x08, 0x00, 0x04, 0x00, 0x0e, 0x00, 0x00, 0x00, 0x02, 0x00, 0x00, 0x00,
  0x01, 0x00, 0x00, 0x00, 0x02, 0x00, 0x00, 0x00, 0x01, 0x00, 0x00, 0x00,
  0x01, 0x00, 0x00, 0x00, 0x19, 0x00, 0x00, 0x00, 0x01, 0x00, 0x00, 0x00,
  0x18, 0x00, 0x00, 0x00, 0xbe, 0xfe, 0xff, 0xff, 0x14, 0x00, 0x00, 0x00,
  0x00, 0x00, 0x00, 0x34, 0x10, 0x00, 0x00, 0x00, 0x14, 0x00, 0x00, 0x00,
  0x04, 0x00, 0x00, 0x00, 0x18, 0xf0, 0xff, 0xff, 0x01, 0x00, 0x00, 0x00,
  0x18, 0x00, 0x00, 0x00, 0x02, 0x00, 0x00, 0x00, 0x17, 0x00, 0x00, 0x00,
  0x08, 0x00, 0x00, 0x00, 0x5e, 0xff, 0xff, 0xff, 0x0c, 0x00, 0x00, 0x00,
  0x10, 0x00, 0x00, 0x00, 0x03, 0x00, 0x00, 0x00, 0x01, 0x00, 0x00, 0x00,
  0x17, 0x00, 0x00, 0x00, 0x02, 0x00, 0x00, 0x00, 0x16, 0x00, 0x00, 0x00,
  0x0e, 0x00, 0x00, 0x00, 0x12, 0xff, 0xff, 0xff, 0x20, 0x00, 0x00, 0x00,
  0x00, 0x00, 0x00, 0x01, 0x28, 0x00, 0x00, 0x00, 0x2c, 0x00, 0x00, 0x00,
  0x05, 0x00, 0x00, 0x00, 0x0c, 0x00, 0x10, 0x00, 0x00, 0x00, 0x0c, 0x00,
  0x08, 0x00, 0x07, 0x00, 0x0c, 0x00, 0x00, 0x00, 0x00, 0x00, 0x00, 0x01,
  0x01, 0x00, 0x00, 0x00, 0x01, 0x00, 0x00, 0x00, 0x01, 0x00, 0x00, 0x00,
  0x16, 0x00, 0x00, 0x00, 0x03, 0x00, 0x00, 0x00, 0x15, 0x00, 0x00, 0x00,
  0x0c, 0x00, 0x00, 0x00, 0x03, 0x00, 0x00, 0x00, 0x5e, 0xff, 0xff, 0xff,
  0x14, 0x00, 0x00, 0x00, 0x00, 0x00, 0x00, 0x34, 0x10, 0x00, 0x00, 0x00,
  0x14, 0x00, 0x00, 0x00, 0x04, 0x00, 0x00, 0x00, 0xb8, 0xf0, 0xff, 0xff,
  0x01, 0x00, 0x00, 0x00, 0x15, 0x00, 0x00, 0x00, 0x02, 0x00, 0x00, 0x00,
  0x14, 0x00, 0x00, 0x00, 0x0a, 0x00, 0x00, 0x00, 0x00, 0x00, 0x0a, 0x00,
  0x10, 0x00, 0x0c, 0x00, 0x08, 0x00, 0x04, 0x00, 0x0a, 0x00, 0x00, 0x00,
  0x0c, 0x00, 0x00, 0x00, 0x10, 0x00, 0x00, 0x00, 0x03, 0x00, 0x00, 0x00,
  0x01, 0x00, 0x00, 0x00, 0x14, 0x00, 0x00, 0x00, 0x02, 0x00, 0x00, 0x00,
  0x00, 0x00, 0x00, 0x00, 0x13, 0x00, 0x00, 0x00, 0xbe, 0xff, 0xff, 0xff,
  0x1c, 0x00, 0x00, 0x00, 0x00, 0x00, 0x00, 0x3b, 0x1c, 0x00, 0x00, 0x00,
  0x20, 0x00, 0x00, 0x00, 0x02, 0x00, 0x00, 0x00, 0x00, 0x00, 0x06, 0x00,
  0x08, 0x00, 0x04, 0x00, 0x06, 0x00, 0x00, 0x00, 0x03, 0x00, 0x00, 0x00,
  0x01, 0x00, 0x00, 0x00, 0x13, 0x00, 0x00, 0x00, 0x03, 0x00, 0x00, 0x00,
  0x12, 0x00, 0x00, 0x00, 0x07, 0x00, 0x00, 0x00, 0x06, 0x00, 0x00, 0x00,
  0x00, 0x00, 0x0e, 0x00, 0x1a, 0x00, 0x14, 0x00, 0x10, 0x00, 0x0c, 0x00,
  0x0b, 0x00, 0x04, 0x00, 0x0e, 0x00, 0x00, 0x00, 0x24, 0x00, 0x00, 0x00,
  0x00, 0x00, 0x00, 0x20, 0x24, 0x00, 0x00, 0x00, 0x28, 0x00, 0x00, 0x00,
  0x01, 0x00, 0x00, 0x00, 0x00, 0x00, 0x0e, 0x00, 0x08, 0x00, 0x00, 0x00,
  0x00, 0x00, 0x00, 0x00, 0x00, 0x00, 0x04, 0x00, 0x0e, 0x00, 0x00, 0x00,
  0x01, 0x00, 0x00, 0x00, 0x01, 0x00, 0x00, 0x00, 0x12, 0x00, 0x00, 0x00,
  0x04, 0x00, 0x00, 0x00, 0x11, 0x00, 0x00, 0x00, 0x05, 0x00, 0x00, 0x00,
  0x04, 0x00, 0x00, 0x00, 0x04, 0x00, 0x00, 0x00, 0x00, 0x00, 0x0e, 0x00,
  0x16, 0x00, 0x00, 0x00, 0x10, 0x00, 0x0c, 0x00, 0x0b, 0x00, 0x04, 0x00,
  0x0e, 0x00, 0x00, 0x00, 0x18, 0x00, 0x00, 0x00, 0x00, 0x00, 0x00, 0x37,
  0x18, 0x00, 0x00, 0x00, 0x1c, 0x00, 0x00, 0x00, 0x00, 0x00, 0x06, 0x00,
  0x08, 0x00, 0x07, 0x00, 0x06, 0x00, 0x00, 0x00, 0x00, 0x00, 0x00, 0x02,
  0x01, 0x00, 0x00, 0x00, 0x11, 0x00, 0x00, 0x00, 0x01, 0x00, 0x00, 0x00,
  0x00, 0x00, 0x00, 0x00, 0x01, 0x00, 0x00, 0x00, 0x22, 0x00, 0x00, 0x00,
  0x01, 0x00, 0x00, 0x00, 0x00, 0x00, 0x00, 0x00, 0x23, 0x00, 0x00, 0x00,
  0xe8, 0x0d, 0x00, 0x00, 0xa0, 0x0d, 0x00, 0x00, 0x58, 0x0d, 0x00, 0x00,
  0x20, 0x0d, 0x00, 0x00, 0xc4, 0x0c, 0x00, 0x00, 0x5c, 0x0c, 0x00, 0x00,
  0x0c, 0x0c, 0x00, 0x00, 0xbc, 0x0b, 0x00, 0x00, 0x64, 0x0b, 0x00, 0x00,
  0x18, 0x0b, 0x00, 0x00, 0xc0, 0x0a, 0x00, 0x00, 0x78, 0x0a, 0x00, 0x00,
  0x24, 0x0a, 0x00, 0x00, 0xd0, 0x09, 0x00, 0x00, 0x7c, 0x09, 0x00, 0x00,
  0x28, 0x09, 0x00, 0x00, 0xd4, 0x08, 0x00, 0x00, 0x88, 0x08, 0x00, 0x00,
  0x38, 0x08, 0x00, 0x00, 0xe4, 0x07, 0x00, 0x00, 0x80, 0x07, 0x00, 0x00,
  0x08, 0x07, 0x00, 0x00, 0x2c, 0x06, 0x00, 0x00, 0x78, 0x05, 0x00, 0x00,
  0x00, 0x05, 0x00, 0x00, 0x8c, 0x04, 0x00, 0x00, 0x20, 0x04, 0x00, 0x00,
  0xa8, 0x03, 0x00, 0x00, 0xcc, 0x02, 0x00, 0x00, 0x18, 0x02, 0x00, 0x00,
  0xa0, 0x01, 0x00, 0x00, 0x2c, 0x01, 0x00, 0x00, 0xd0, 0x00, 0x00, 0x00,
  0x5c, 0x00, 0x00, 0x00, 0x04, 0x00, 0x00, 0x00, 0xb8, 0xf2, 0xff, 0xff,
  0x14, 0x00, 0x00, 0x00, 0x1c, 0x00, 0x00, 0x00, 0x1c, 0x00, 0x00, 0x00,
  0x23, 0x00, 0x00, 0x00, 0x34, 0x00, 0x00, 0x00, 0x02, 0x00, 0x00, 0x00,
  0xff, 0xff, 0xff, 0xff, 0x05, 0x00, 0x00, 0x00, 0xa4, 0xf2, 0xff, 0xff,
  0x19, 0x00, 0x00, 0x00, 0x53, 0x74, 0x61, 0x74, 0x65, 0x66, 0x75, 0x6c,
  0x50, 0x61, 0x72, 0x74, 0x69, 0x74, 0x69, 0x6f, 0x6e, 0x65, 0x64, 0x43,
  0x61, 0x6c, 0x6c, 0x3a, 0x30, 0x00, 0x00, 0x00, 0x02, 0x00, 0x00, 0x00,
  0x01, 0x00, 0x00, 0x00, 0x05, 0x00, 0x00, 0x00, 0x0c, 0xf3, 0xff, 0xff,
  0x14, 0x00, 0x00, 0x00, 0x1c, 0x00, 0x00, 0x00, 0x1c, 0x00, 0x00, 0x00,
  0x22, 0x00, 0x00, 0x00, 0x50, 0x00, 0x00, 0x00, 0x02, 0x00, 0x00, 0x00,
  0xff, 0xff, 0xff, 0xff, 0x05, 0x00, 0x00, 0x00, 0xf8, 0xf2, 0xff, 0xff,
  0x36, 0x00, 0x00, 0x00, 0x73, 0x65, 0x71, 0x75, 0x65, 0x6e, 0x74, 0x69,
  0x61, 0x6c, 0x5f, 0x36, 0x2f, 0x79, 0x5f, 0x70, 0x72, 0x65, 0x64, 0x2f,
  0x4d, 0x61, 0x74, 0x4d, 0x75, 0x6c, 0x3b, 0x73, 0x65, 0x71, 0x75, 0x65,
  0x6e, 0x74, 0x69, 0x61, 0x6c, 0x5f, 0x36, 0x2f, 0x79, 0x5f, 0x70, 0x72,
  0x65, 0x64, 0x2f, 0x42, 0x69, 0x61, 0x73, 0x41, 0x64, 0x64, 0x00, 0x00,
  0x02, 0x00, 0x00, 0x00, 0x01, 0x00, 0x00, 0x00, 0x05, 0x00, 0x00, 0x00,
  0x7c, 0xf3, 0xff, 0xff, 0x14, 0x00, 0x00, 0x00, 0x1c, 0x00, 0x00, 0x00,
  0x1c, 0x00, 0x00, 0x00, 0x21, 0x00, 0x00, 0x00, 0x38, 0x00, 0x00, 0x00,
  0x02, 0x00, 0x00, 0x00, 0xff, 0xff, 0xff, 0xff, 0x90, 0x01, 0x00, 0x00,
  0x68, 0xf3, 0xff, 0xff, 0x1e, 0x00, 0x00, 0x00, 0x73, 0x65, 0x71, 0x75,
  0x65, 0x6e, 0x74, 0x69, 0x61, 0x6c, 0x5f, 0x36, 0x2f, 0x66, 0x6c, 0x61,
  0x74, 0x74, 0x65, 0x6e, 0x5f, 0x36, 0x2f, 0x52, 0x65, 0x73, 0x68, 0x61,
  0x70, 0x65, 0x00, 0x00, 0x02, 0x00, 0x00, 0x00, 0x01, 0x00, 0x00, 0x00,
  0x90, 0x01, 0x00, 0x00, 0xd4, 0xf3, 0xff, 0xff, 0x14, 0x00, 0x00, 0x00,
  0x24, 0x00, 0x00, 0x00, 0x24, 0x00, 0x00, 0x00, 0x20, 0x00, 0x00, 0x00,
  0x48, 0x00, 0x00, 0x00, 0x04, 0x00, 0x00, 0x00, 0xff, 0xff, 0xff, 0xff,
  0x19, 0x00, 0x00, 0x00, 0x01, 0x00, 0x00, 0x00, 0x10, 0x00, 0x00, 0x00,
  0xc8, 0xf3, 0xff, 0xff, 0x25, 0x00, 0x00, 0x00, 0x73, 0x65, 0x71, 0x75,
  0x65, 0x6e, 0x74, 0x69, 0x61, 0x6c, 0x5f, 0x36, 0x2f, 0x6d, 0x61, 0x78,
  0x5f, 0x70, 0x6f, 0x6f, 0x6c, 0x69, 0x6e, 0x67, 0x31, 0x64, 0x5f, 0x31,
  0x33, 0x2f, 0x4d, 0x61, 0x78, 0x50, 0x6f, 0x6f, 0x6c, 0x00, 0x00, 0x00,
  0x04, 0x00, 0x00, 0x00, 0x01, 0x00, 0x00, 0x00, 0x19, 0x00, 0x00, 0x00,
  0x01, 0x00, 0x00, 0x00, 0x10, 0x00, 0x00, 0x00, 0x44, 0xf4, 0xff, 0xff,
  0x14, 0x00, 0x00, 0x00, 0x24, 0x00, 0x00, 0x00, 0x24, 0x00, 0x00, 0x00,
  0x1f, 0x00, 0x00, 0x00, 0x4c, 0x00, 0x00, 0x00, 0x04, 0x00, 0x00, 0x00,
  0xff, 0xff, 0xff, 0xff, 0x31, 0x00, 0x00, 0x00, 0x01, 0x00, 0x00, 0x00,
  0x10, 0x00, 0x00, 0x00, 0x38, 0xf4, 0xff, 0xff, 0x28, 0x00, 0x00, 0x00,
  0x73, 0x65, 0x71, 0x75, 0x65, 0x6e, 0x74, 0x69, 0x61, 0x6c, 0x5f, 0x36,
  0x2f, 0x6d, 0x61, 0x78, 0x5f, 0x70, 0x6f, 0x6f, 0x6c, 0x69, 0x6e, 0x67,
  0x31, 0x64, 0x5f, 0x31, 0x33, 0x2f, 0x45, 0x78, 0x70, 0x61, 0x6e, 0x64,
  0x44, 0x69, 0x6d, 0x73, 0x00, 0x00, 0x00, 0x00, 0x04, 0x00, 0x00, 0x00,
  0x01, 0x00, 0x00, 0x00, 0x31, 0x00, 0x00, 0x00, 0x01, 0x00, 0x00, 0x00,
  0x10, 0x00, 0x00, 0x00, 0xb8, 0xf4, 0xff, 0xff, 0x14, 0x00, 0x00, 0x00,
  0x20, 0x00, 0x00, 0x00, 0x20, 0x00, 0x00, 0x00, 0x1e, 0x00, 0x00, 0x00,
  0x8c, 0x00, 0x00, 0x00, 0x03, 0x00, 0x00, 0x00, 0xff, 0xff, 0xff, 0xff,
  0x31, 0x00, 0x00, 0x00, 0x10, 0x00, 0x00, 0x00, 0xa8, 0xf4, 0xff, 0xff,
  0x6f, 0x00, 0x00, 0x00, 0x73, 0x65, 0x71, 0x75, 0x65, 0x6e, 0x74, 0x69,
